{
  "version": "1.0",
  "truncation": null,
  "padding": {
    "strategy": {
      "Fixed": 52
    },
    "direction": "Right",
    "pad_to_multiple_of": null,
    "pad_id": 0,
    "pad_type_id": 0,
    "pad_token": "[PAD]"
  },
  "added_tokens": [
    {
      "id": 0,
      "content": "[PAD]",
      "single_word": false,
      "lstrip": false,
      "rstrip": false,
      "normalized": false,
      "special": true
    },
    {
      "id": 1,
      "content": "[UNK]",
      "single_word": false,
      "lstrip": false,
      "rstrip": false,
      "normalized": false,
      "special": true
    },
    {
      "id": 2,
      "content": "[CLS]",
      "single_word": false,
      "lstrip": false,
      "rstrip": false,
      "normalized": false,
      "special": true
    },
    {
      "id": 3,
      "content": "[SEP]",
      "single_word": false,
      "lstrip": false,
      "rstrip": false,
      "normalized": false,
      "special": true
    }
  ],
  "normalizer": {
    "type": "Lowercase"
  },
  "pre_tokenizer": null,
  "post_processor": {
    "type": "TemplateProcessing",
    "single": [
      {
        "SpecialToken": {
          "id": "[CLS]",
          "type_id": 0
        }
      },
      {
        "Sequence": {
          "id": "A",
          "type_id": 0
        }
      },
      {
        "SpecialToken": {
          "id": "[SEP]",
          "type_id": 0
        }
      }
    ],
    "pair": [
      {
        "SpecialToken": {
          "id": "[CLS]",
          "type_id": 0
        }
      },
      {
        "Sequence": {
          "id": "A",
          "type_id": 0
        }
      },
      {
        "SpecialToken": {
          "id": "[SEP]",
          "type_id": 0
        }
      },
      {
        "Sequence": {
          "id": "B",
          "type_id": 1
        }
      },
      {
        "SpecialToken": {
          "id": "[SEP]",
          "type_id": 1
        }
      }
    ],
    "special_tokens": {
      "[CLS]": {
        "id": "[CLS]",
        "ids": [
          2
        ],
        "tokens": [
          "[CLS]"
        ]
      },
      "[SEP]": {
        "id": "[SEP]",
        "ids": [
          3
        ],
        "tokens": [
          "[SEP]"
        ]
      }
    }
  },
  "decoder": null,
  "model": {
    "type": "WordPiece",
    "unk_token": "[UNK]",
    "continuing_subword_prefix": "##",
    "max_input_chars_per_word": 100,
    "vocab": {
      "[PAD]": 0,
      "[UNK]": 1,
      "[CLS]": 2,
      "[SEP]": 3,
      " ": 4,
      "!": 5,
      "\"": 6,
      "#": 7,
      "&": 8,
      "'": 9,
      "(": 10,
      ")": 11,
      "-": 12,
      ".": 13,
      "0": 14,
      "1": 15,
      "2": 16,
      "3": 17,
      "4": 18,
      "5": 19,
      "6": 20,
      "7": 21,
      "8": 22,
      "9": 23,
      ";": 24,
      "?": 25,
      "a": 26,
      "b": 27,
      "c": 28,
      "d": 29,
      "e": 30,
      "f": 31,
      "g": 32,
      "h": 33,
      "i": 34,
      "j": 35,
      "k": 36,
      "l": 37,
      "m": 38,
      "n": 39,
      "o": 40,
      "p": 41,
      "q": 42,
      "r": 43,
      "s": 44,
      "t": 45,
      "u": 46,
      "v": 47,
      "w": 48,
      "x": 49,
      "y": 50,
      "z": 51,
      "##y": 52,
      "##o": 53,
      "##u": 54,
      "##n": 55,
      "##g": 56,
      "## ": 57,
      "##b": 58,
      "##s": 59,
      "##e": 60,
      "##i": 61,
      "##h": 62,
      "##t": 63,
      "##a": 64,
      "##r": 65,
      "##w": 66,
      "##l": 67,
      "##d": 68,
      "##m": 69,
      "##c": 70,
      "##k": 71,
      "##\"": 72,
      "##p": 73,
      "##.": 74,
      "##f": 75,
      "##x": 76,
      "##j": 77,
      "##-": 78,
      "##v": 79,
      "##(": 80,
      "##)": 81,
      "##q": 82,
      "##'": 83,
      "##1": 84,
      "##2": 85,
      "##3": 86,
      "##8": 87,
      "##z": 88,
      "##5": 89,
      "##&": 90,
      "##0": 91,
      "##9": 92,
      "##4": 93,
      "##7": 94,
      "###": 95,
      "##6": 96,
      "##;": 97,
      "##!": 98,
      "##?": 99,
      "## a": 100,
      "##in": 101,
      "##e ": 102,
      "## a ": 103,
      "##s ": 104,
      "a ": 105,
      "##g ": 106,
      "##th": 107,
      "##n ": 108,
      "##d ": 109,
      "##ing ": 110,
      "##er": 111,
      "## .": 112,
      "##ro": 113,
      "##hi": 114,
      "##la": 115,
      "##t ": 116,
      "##do": 117,
      "##y ": 118,
      "##re": 119,
      "##ma": 120,
      "##the ": 121,
      "## an": 122,
      "##ck": 123,
      "##in ": 124,
      "a b": 125,
      "##ar": 126,
      "##on": 127,
      "##er ": 128,
      "##is ": 129,
      "##st": 130,
      "##l ": 131,
      "##ir": 132,
      "##un": 133,
      "##ing": 134,
      "##of": 135,
      "##man ": 136,
      "##dog ": 137,
      "##an": 138,
      "##in a ": 139,
      "##wa": 140,
      "##le ": 141,
      "## and ": 142,
      "##to": 143,
      "##wi": 144,
      "##whi": 145,
      "##wo": 146,
      "##with": 147,
      "##ch": 148,
      "##it": 149,
      "##ba": 150,
      "##on ": 151,
      "##lo": 152,
      "##ra": 153,
      "##bo": 154,
      "##ck ": 155,
      "##ing a ": 156,
      "##id": 157,
      "##le": 158,
      "##on a ": 159,
      "##of ": 160,
      "##pla": 161,
      "##ho": 162,
      "##s .": 163,
      "##row": 164,
      "a g": 165,
      "##up": 166,
      "##e .": 167,
      "a man ": 168,
      "##te ": 169,
      "##be": 170,
      "##se": 171,
      "##ld": 172,
      "##ear": 173,
      "##mp": 174,
      "##or": 175,
      "##ou": 176,
      "##white ": 177,
      "##play": 178,
      "##in the ": 179,
      "## ar": 180,
      "##ll ": 181,
      "##irl ": 182,
      "##wat": 183,
      "##at": 184,
      "##and": 185,
      "##gh": 186,
      "##el": 187,
      "a bo": 188,
      "##lack ": 189,
      "##pe": 190,
      "##d .": 191,
      "##co": 192,
      "##s a ": 193,
      "## are ": 194,
      "a boy ": 195,
      "##ri": 196,
      "##with ": 197,
      "##li": 198,
      "##up ": 199,
      "##rown ": 200,
      "##ta": 201,
      "##run": 202,
      "##ump": 203,
      "##ll": 204,
      "##red ": 205,
      "##with a ": 206,
      "##jump": 207,
      "##to ": 208,
      "##en": 209,
      "##en ": 210,
      "##ur": 211,
      "##ed ": 212,
      "##stand": 213,
      "##wo ": 214,
      "##es ": 215,
      "##sk": 216,
      "##d a ": 217,
      "##no": 218,
      "##lk": 219,
      "##er .": 220,
      "##op": 221,
      "##shi": 222,
      "##et": 223,
      "##itt": 224,
      "##of a ": 225,
      "##lu": 226,
      "##  ": 227,
      "##fro": 228,
      "##wear": 229,
      "##ha": 230,
      "##chi": 231,
      "##shir": 232,
      "##ge ": 233,
      "##his ": 234,
      "##now": 235,
      "##snow": 236,
      "##oth": 237,
      "##ic": 238,
      "##a ": 239,
      "##walk": 240,
      "##gra": 241,
      "##blu": 242,
      "##ball ": 243,
      "##on the ": 244,
      "##roup ": 245,
      "##po": 246,
      "## and a ": 247,
      "a girl ": 248,
      "##ugh": 249,
      "##black ": 250,
      "##dog is ": 251,
      "##dog": 252,
      "##ing a": 253,
      "##roup of ": 254,
      "##dow": 255,
      "##rid": 256,
      "##sid": 257,
      "##ea": 258,
      "##fi": 259,
      "##peop": 260,
      "##woman ": 261,
      "##ver": 262,
      "##low": 263,
      "##roun": 264,
      "##blue ": 265,
      "##s a": 266,
      "## and white ": 267,
      "##for": 268,
      "##runn": 269,
      "##the": 270,
      "##ld ": 271,
      "##so": 272,
      "a group of ": 273,
      "##hold": 274,
      "##rough": 275,
      "##other ": 276,
      "##k ": 277,
      "##through": 278,
      "##ca": 279,
      "\"a ": 280,
      "##gras": 281,
      "##lon": 282,
      "##boar": 283,
      "##m ": 284,
      "##ok": 285,
      "##pa": 286,
      "##ing on a ": 287,
      "##lack": 288,
      "##ing .": 289,
      "##shirt ": 290,
      "##oun": 291,
      "##cli": 292,
      "##girl ": 293,
      "##bi": 294,
      "##car": 295,
      "##playing ": 296,
      "##gre": 297,
      "##et ": 298,
      "##ir ": 299,
      "##child ": 300,
      "##brown ": 301,
      "##while ": 302,
      "##sh": 303,
      "a brown ": 304,
      "##people ": 305,
      "two ": 306,
      "##its ": 307,
      "##sse": 308,
      "##ch ": 309,
      "##look": 310,
      "##fa": 311,
      "##running ": 312,
      "##per": 313,
      "##fron": 314,
      "##sho": 315,
      "##standing ": 316,
      "##t .": 317,
      "##jumping ": 318,
      "##man": 319,
      "##front ": 320,
      "##ll .": 321,
      "a black ": 322,
      "##in front ": 323,
      "##to a ": 324,
      "##t a ": 325,
      "## another ": 326,
      "##water .": 327,
      "##mb": 328,
      "##boy ": 329,
      "##low ": 330,
      "##by ": 331,
      "##ne": 332,
      "##dre": 333,
      "##s are ": 334,
      "##wearing a ": 335,
      "##il": 336,
      "##two ": 337,
      "##lar": 338,
      "##litt": 339,
      "##sitt": 340,
      "##bu": 341,
      "##little ": 342,
      "## the ": 343,
      "a black": 344,
      "##out": 345,
      "a man in a ": 346,
      "##fo": 347,
      "a dog ": 348,
      "##yel": 349,
      "##ts ": 350,
      "##green ": 351,
      "##stre": 352,
      "##bea": 353,
      "a child ": 354,
      "##bik": 355,
      "##som": 356,
      "##y .": 357,
      "## an ": 358,
      "##skat": 359,
      "##es a ": 360,
      "##ch .": 361,
      "##groun": 362,
      "##fiel": 363,
      "##down": 364,
      "##st ": 365,
      "##irl": 366,
      "##water ": 367,
      "##over": 368,
      "##yellow ": 369,
      "##si": 370,
      "##mou": 371,
      "##par": 372,
      "##ss ": 373,
      "##pin": 374,
      "th": 375,
      "##p ": 376,
      "##near": 377,
      "##back": 378,
      "##lea": 379,
      "##son ": 380,
      "##mouth": 381,
      "##climb": 382,
      "##m .": 383,
      "##ldre": 384,
      "##wearing ": 385,
      "##in front of a ": 386,
      "##large ": 387,
      "##di": 388,
      "##mer": 389,
      "##person ": 390,
      "##ounta": 391,
      "##eboar": 392,
      "##grass .": 393,
      "##ga": 394,
      "##at ": 395,
      "##t the ": 396,
      "a ba": 397,
      "##su": 398,
      "##rac": 399,
      "##sur": 400,
      "##skateboar": 401,
      "##side": 402,
      "##girl": 403,
      "##the a": 404,
      "##down a ": 405,
      "##off": 406,
      "##ti": 407,
      "##ja": 408,
      "##ers ": 409,
      "##ree ": 410,
      "##one ": 411,
      "##ru": 412,
      "##player ": 413,
      "## and white dog ": 414,
      "##hin": 415,
      "##her ": 416,
      "##cha": 417,
      "##rown": 418,
      "##es .": 419,
      "##tra": 420,
      "##dy ": 421,
      "##and ": 422,
      "##side ": 423,
      "##cro": 424,
      "##sm": 425,
      "##snow .": 426,
      "##dresse": 427,
      "##jumps ": 428,
      "##sw": 429,
      "##while": 430,
      "##et .": 431,
      "##pink ": 432,
      "##childre": 433,
      "a little ": 434,
      "a brown dog ": 435,
      "##se ": 436,
      "##behin": 437,
      "##over a ": 438,
      "##ol": 439,
      "a c": 440,
      "##walking ": 441,
      "##rea": 442,
      "##stands ": 443,
      "##jack": 444,
      "##te": 445,
      "##mounta": 446,
      "##down ": 447,
      "##od": 448,
      "##tri": 449,
      "##xt ": 450,
      "##next ": 451,
      "##ver ": 452,
      "##sma": 453,
      "##ball .": 454,
      "##oran": 455,
      "##mo": 456,
      "##yc": 457,
      "##by": 458,
      "##camer": 459,
      "##swi": 460,
      "##go": 461,
      "##holding a ": 462,
      "##eth": 463,
      "a man": 464,
      "##dogs ": 465,
      "##fe": 466,
      "##s and ": 467,
      "a girl in a ": 468,
      "##sitting ": 469,
      "##ys ": 470,
      "##men ": 471,
      "##n .": 472,
      "##ck .": 473,
      "a black dog ": 474,
      "##orange ": 475,
      "##foo": 476,
      "##ying ": 477,
      "##dressed ": 478,
      "##pu": 479,
      "##le .": 480,
      "##runs ": 481,
      "##to the ": 482,
      "##fac": 483,
      "##ground .": 484,
      "##hea": 485,
      "##ds ": 486,
      "##it ": 487,
      "##cat": 488,
      "##our": 489,
      "##through the ": 490,
      "##ve ": 491,
      "##gu": 492,
      "##ff": 493,
      "##tur": 494,
      "##sti": 495,
      "##shor": 496,
      "##dir": 497,
      "a boy in a ": 498,
      "##swim": 499,
      "a co": 500,
      "##men": 501,
      "##in the a": 502,
      "##out ": 503,
      "##some ": 504,
      "##wood": 505,
      "a man is ": 506,
      "##shirt": 507,
      "##brown dog ": 508,
      "##youn": 509,
      "##surf": 510,
      "##tt": 511,
      "## at a ": 512,
      "##beach .": 513,
      "##field .": 514,
      "##small ": 515,
      "a person ": 516,
      "##sta": 517,
      "the ": 518,
      "a brown": 519,
      "##cc": 520,
      "##ten": 521,
      "##hel": 522,
      "##war": 523,
      "a woman ": 524,
      "##rock ": 525,
      "##by a ": 526,
      "##ve": 527,
      "##people": 528,
      "##their ": 529,
      "##rowd ": 530,
      "##watch": 531,
      "##through ": 532,
      "##mouth .": 533,
      "##mountain": 534,
      "##socc": 535,
      "##uple ": 536,
      "##through a ": 537,
      "##young ": 538,
      "##over ": 539,
      "##sing ": 540,
      "##tre": 541,
      "##an ": 542,
      "##ming ": 543,
      "##fu": 544,
      "##behind ": 545,
      "##fri": 546,
      "##lid": 547,
      "##plays ": 548,
      "##shirt is ": 549,
      "##catch": 550,
      "##je": 551,
      "##water": 552,
      "##gla": 553,
      "##clo": 554,
      "a blon": 555,
      "a brown dog is ": 556,
      "##from": 557,
      "##ild": 558,
      "##pic": 559,
      "##ball player ": 560,
      "##foot": 561,
      "##mu": 562,
      "##rock": 563,
      "##dirt ": 564,
      "##sun": 565,
      "##de": 566,
      "##in the back": 567,
      "##build": 568,
      "##ki": 569,
      "##colo": 570,
      "##holding ": 571,
      "##children ": 572,
      "##jacket ": 573,
      "##camera": 574,
      "##sits ": 575,
      "##slid": 576,
      "##ly ": 577,
      "a bi": 578,
      "##on .": 579,
      "##black": 580,
      "##d a": 581,
      "##mid": 582,
      "##ir .": 583,
      "##ben": 584,
      "##pool": 585,
      "## and white dog is ": 586,
      "##field ": 587,
      "##side a ": 588,
      "##de ": 589,
      "##from ": 590,
      "##hat ": 591,
      "##bike ": 592,
      "##next to a ": 593,
      "##soccer ": 594,
      "## an a": 595,
      "##uni": 596,
      "##play ": 597,
      "##cover": 598,
      "##dd": 599,
      "##con": 600,
      "##k .": 601,
      "a group of people ": 602,
      "##grass": 603,
      "##people are ": 604,
      "##ded ": 605,
      "##in its ": 606,
      "##anc": 607,
      "##skateboard ": 608,
      "##gg": 609,
      "##tor": 610,
      "##on his ": 611,
      "##of the ": 612,
      "##in the snow .": 613,
      "##tenn": 614,
      "##oc": 615,
      "##al ": 616,
      "##tak": 617,
      "##dogs are ": 618,
      "a couple ": 619,
      "##unifor": 620,
      "##sp": 621,
      "##ght ": 622,
      "##suit ": 623,
      "##tennis ": 624,
      "##ting ": 625,
      "##rin": 626,
      "##into a ": 627,
      "##riding a ": 628,
      "##carr": 629,
      "##ker ": 630,
      "##roa": 631,
      "##les ": 632,
      "##glasse": 633,
      "##w ": 634,
      "##du": 635,
      "##ding ": 636,
      "##pi": 637,
      "##ski": 638,
      "##icyc": 639,
      "##for a ": 640,
      "##looks ": 641,
      "##sitting on a ": 642,
      "a black and white dog ": 643,
      "##from a ": 644,
      "##sha": 645,
      "##me": 646,
      "##ph": 647,
      "##snowy ": 648,
      "##long ": 649,
      "##ps ": 650,
      "##sket": 651,
      "##street .": 652,
      "##near a ": 653,
      "## is ": 654,
      "##girls ": 655,
      "a man and a ": 656,
      "##hand": 657,
      "##towar": 658,
      "a man in ": 659,
      "##enc": 660,
      "##pool .": 661,
      "##eat": 662,
      "##tu": 663,
      "##hu": 664,
      "##han": 665,
      "## at the ": 666,
      "##him .": 667,
      "##camera .": 668,
      "##ocea": 669,
      "##bar": 670,
      "##pp": 671,
      "##that ": 672,
      "##che": 673,
      "##boys ": 674,
      "##snow ": 675,
      "##long": 676,
      "##while another ": 677,
      "##swimming ": 678,
      "##dar": 679,
      "##in an ": 680,
      "##door": 681,
      "##male ": 682,
      "##stu": 683,
      "##top ": 684,
      "##snowboar": 685,
      "##pur": 686,
      "##in the background .": 687,
      "##covered ": 688,
      "## at ": 689,
      "##it .": 690,
      "##hor": 691,
      "##looking ": 692,
      "##gs ": 693,
      "##sa": 694,
      "##win": 695,
      "##ms ": 696,
      "##'s ": 697,
      "##doing a ": 698,
      "##und": 699,
      "##being ": 700,
      "a boy is ": 701,
      "##ying a ": 702,
      "##ycli": 703,
      "##king ": 704,
      "##flo": 705,
      "##with his ": 706,
      "##holds a ": 707,
      "##off ": 708,
      "##smil": 709,
      "##while a ": 710,
      "##stand ": 711,
      "## and black ": 712,
      "##each ": 713,
      "##round ": 714,
      "##ter": 715,
      "## as ": 716,
      "##woman": 717,
      "a black and ": 718,
      "##gam": 719,
      "a little girl ": 720,
      "##our ": 721,
      "##shorts ": 722,
      "##bri": 723,
      "##ired ": 724,
      "##fenc": 725,
      "##lan": 726,
      "##in his ": 727,
      "##has ": 728,
      "##walks ": 729,
      "##dressed in ": 730,
      "##helm": 731,
      "##ful ": 732,
      "##ni": 733,
      "##se .": 734,
      "##cit": 735,
      "##qu": 736,
      "##three ": 737,
      "##lak": 738,
      "a baby ": 739,
      "##cros": 740,
      "##is a": 741,
      "##tab": 742,
      "##haired ": 743,
      "##someth": 744,
      "##fla": 745,
      "##rest": 746,
      "##led ": 747,
      "##ic ": 748,
      "##grass ": 749,
      "##path": 750,
      "##street ": 751,
      "##in the air ": 752,
      "##pictur": 753,
      "##in its mouth .": 754,
      "##sbe": 755,
      "##fli": 756,
      "a dog is ": 757,
      "##in a red ": 758,
      "a gu": 759,
      "##walk ": 760,
      "##down the ": 761,
      "##stick ": 762,
      "##frisbe": 763,
      "##grassy ": 764,
      "##into the ": 765,
      "##lady ": 766,
      "##ramp": 767,
      "##up a ": 768,
      "##posing ": 769,
      "three ": 770,
      "##cross ": 771,
      "##trick ": 772,
      "##ob": 773,
      "##ing the ": 774,
      "##ses ": 775,
      "##geth": 776,
      "##hat": 777,
      "##wav": 778,
      "##toy ": 779,
      "##togeth": 780,
      "##white dog ": 781,
      "##ped ": 782,
      "##perfor": 783,
      "##dress ": 784,
      "##motor": 785,
      "##shirt and ": 786,
      "##carrying a ": 787,
      "##long a ": 788,
      "##e and ": 789,
      "##back ": 790,
      "##in the water .": 791,
      "##   ": 792,
      "a black dog is ": 793,
      "a guy ": 794,
      "##er is ": 795,
      "##ans ": 796,
      "##dog and a ": 797,
      "##looking a": 798,
      "##sig": 799,
      "##glasses ": 800,
      "##purp": 801,
      "##get": 802,
      "##bb": 803,
      "##bicyc": 804,
      "##s and a ": 805,
      "##eld": 806,
      "a fe": 807,
      "##red": 808,
      "##way ": 809,
      "##rowd of ": 810,
      "##ter ": 811,
      "##danc": 812,
      "##cyc": 813,
      "##high": 814,
      "##side .": 815,
      "##big ": 816,
      "a black and white dog is ": 817,
      "##ground ": 818,
      "##lin": 819,
      "##boy": 820,
      "##playing with a ": 821,
      "##beach ": 822,
      "##cloth": 823,
      "##dark ": 824,
      "##yclist ": 825,
      "##pan": 826,
      "##ste": 827,
      "##and .": 828,
      "##in a blue ": 829,
      "##white": 830,
      "##purple ": 831,
      "##ne ": 832,
      "##outside ": 833,
      "##wooden ": 834,
      "##ocean .": 835,
      "an ": 836,
      "##spla": 837,
      "##tr": 838,
      "##tea": 839,
      "##da": 840,
      "##stri": 841,
      "##s at a ": 842,
      "##children": 843,
      "##splash": 844,
      "##mak": 845,
      "##cks ": 846,
      "##ings ": 847,
      "##tan ": 848,
      "##for the ": 849,
      "##uniform ": 850,
      "##yar": 851,
      "##na": 852,
      "##in .": 853,
      "##is standing ": 854,
      "##standing on a ": 855,
      "##riding ": 856,
      "##smi": 857,
      "##mida": 858,
      "##der ": 859,
      "##dri": 860,
      "##vi": 861,
      "## at": 862,
      "##dog are ": 863,
      "##park .": 864,
      "##mouth ": 865,
      "##under": 866,
      "##something ": 867,
      "##wh": 868,
      "## abo": 869,
      "##ball": 870,
      "a blond ": 871,
      "##color": 872,
      "##ut ": 873,
      "##e a ": 874,
      "##cour": 875,
      "##roll": 876,
      "##wall .": 877,
      "##in the grass .": 878,
      "##lone ": 879,
      "##carri": 880,
      "##off a ": 881,
      "##building .": 882,
      "##sit": 883,
      "##ey ": 884,
      "##drin": 885,
      "##jo": 886,
      "##hill .": 887,
      "##black dog ": 888,
      "##running a": 889,
      "\"a man ": 890,
      "##game .": 891,
      "##children are ": 892,
      "##flow": 893,
      "##roo": 894,
      "##jump ": 895,
      "##mountain .": 896,
      "a blonde ": 897,
      "a big ": 898,
      "##helmet ": 899,
      "##ge .": 900,
      "##sc": 901,
      "##ep ": 902,
      "##ers .": 903,
      "##rop": 904,
      "##ght": 905,
      "##face .": 906,
      "##cross the ": 907,
      "##motorcyc": 908,
      "##sand .": 909,
      "##me ": 910,
      "##into ": 911,
      "##does a ": 912,
      "##rail": 913,
      "## arms ": 914,
      "##talk": 915,
      "##on the beach .": 916,
      "a girl is ": 917,
      "##in front of ": 918,
      "##outdoor": 919,
      "##sit ": 920,
      "##near ": 921,
      "a little boy ": 922,
      "##face ": 923,
      "##head ": 924,
      "##dul": 925,
      "##ed": 926,
      "##we": 927,
      "##in mida": 928,
      "##stru": 929,
      "##ird ": 930,
      "##top": 931,
      "##basket": 932,
      "##ght .": 933,
      "##sian ": 934,
      "##race ": 935,
      "##head": 936,
      "a brown and white dog ": 937,
      "##rocky ": 938,
      "four ": 939,
      "##ol ": 940,
      "##sing a ": 941,
      "##st a ": 942,
      "##to catch": 943,
      "##rides ": 944,
      "##cliff": 945,
      "##surroun": 946,
      "##camera ": 947,
      "##brown": 948,
      "##spe": 949,
      "##ce": 950,
      "##ce ": 951,
      "a lady ": 952,
      "##in red ": 953,
      "##unch ": 954,
      "##ing and ": 955,
      "##col": 956,
      "##costu": 957,
      "##rider ": 958,
      "##surfboar": 959,
      "##ope": 960,
      "##umb": 961,
      "##who": 962,
      "##can": 963,
      "##hill ": 964,
      "## and": 965,
      "##base": 966,
      "##les .": 967,
      "##ing at a ": 968,
      "##fish": 969,
      "##chase": 970,
      "##colored ": 971,
      "##slide .": 972,
      "##lake .": 973,
      "##perform": 974,
      "##colorful ": 975,
      "##to catch a ": 976,
      "##ex": 977,
      "##ted ": 978,
      "##cre": 979,
      "##kid": 980,
      "##ping ": 981,
      "##pho": 982,
      "##in a white ": 983,
      "##body ": 984,
      "a boy": 985,
      "##for ": 986,
      "##mountain ": 987,
      "##jeans ": 988,
      "##football player ": 989,
      "##sunglasses ": 990,
      "##smiling ": 991,
      "##fence .": 992,
      "##cross a ": 993,
      "##group of ": 994,
      "##ks ": 995,
      "##\"\"": 996,
      "a lone ": 997,
      "##throw": 998,
      "## .\"": 999,
      "##women ": 1000,
      "##round a ": 1001,
      "##outside .": 1002,
      "a crowd of ": 1003,
      "##ment ": 1004,
      "##high ": 1005,
      "##al": 1006,
      "##ling ": 1007,
      "##mar": 1008,
      "##whil": 1009,
      "##itar": 1010,
      "##boat ": 1011,
      "##holds ": 1012,
      "##jumping over a ": 1013,
      "##park ": 1014,
      "##gain": 1015,
      "##sweat": 1016,
      "a clo": 1017,
      "##football ": 1018,
      "##unch of ": 1019,
      "one ": 1020,
      "##sle": 1021,
      "##sand": 1022,
      "##s another ": 1023,
      "##es a": 1024,
      "##he ": 1025,
      "##ci": 1026,
      "a large ": 1027,
      "##in blue ": 1028,
      "##ire ": 1029,
      "##man is ": 1030,
      "##toy .": 1031,
      "##baby ": 1032,
      "##tal ": 1033,
      "##ice ": 1034,
      "##near the ": 1035,
      "##sidewalk": 1036,
      "##jacket": 1037,
      "a man and ": 1038,
      "##bench ": 1039,
      "##bicycle ": 1040,
      "##whe": 1041,
      "a close": 1042,
      "##ya": 1043,
      "##old": 1044,
      "##bit": 1045,
      "##ima": 1046,
      "##crow": 1047,
      "##f ": 1048,
      "##ing down a ": 1049,
      "##ckey ": 1050,
      "##with the ": 1051,
      "##hair ": 1052,
      "##icyclist ": 1053,
      "##walking a": 1054,
      "##pose ": 1055,
      "a group of people are ": 1056,
      "\"a boy ": 1057,
      "##wearing a red ": 1058,
      "##climbing a ": 1059,
      "##in an orange ": 1060,
      "##table ": 1061,
      "##striped ": 1062,
      "an": 1063,
      "##blon": 1064,
      "##ler ": 1065,
      "##ving ": 1066,
      "##ves ": 1067,
      "## asian ": 1068,
      "##ther ": 1069,
      "##star": 1070,
      "##in a black ": 1071,
      "##of water .": 1072,
      "##or ": 1073,
      "##coat ": 1074,
      "##runs a": 1075,
      "##other .": 1076,
      "##pool ": 1077,
      "##pain": 1078,
      "##bike .": 1079,
      "a basket": 1080,
      "##run ": 1081,
      "##track .": 1082,
      "##road .": 1083,
      "a man and a woman ": 1084,
      "##picture ": 1085,
      "pe": 1086,
      "##ge": 1087,
      "##tree ": 1088,
      "##dur": 1089,
      "##mi": 1090,
      "##mil": 1091,
      "##ka": 1092,
      "##founta": 1093,
      "##laugh": 1094,
      "##watch .": 1095,
      "##ing an ": 1096,
      "##cap": 1097,
      "##car ": 1098,
      "##grey ": 1099,
      "##leaps ": 1100,
      "##swing .": 1101,
      "##next to ": 1102,
      "##men are ": 1103,
      "##city ": 1104,
      "##carries a ": 1105,
      "peop": 1106,
      "##har": 1107,
      "##hand ": 1108,
      "##ry ": 1109,
      "##lying ": 1110,
      "##cti": 1111,
      "##ke ": 1112,
      "##dog .": 1113,
      "##in a field ": 1114,
      "##wall ": 1115,
      "##wor": 1116,
      "##iti": 1117,
      "##hou": 1118,
      "##sh ": 1119,
      "##she": 1120,
      "##running through the ": 1121,
      "##show": 1122,
      "##stair": 1123,
      "##tree .": 1124,
      "##jec": 1125,
      "##from the ": 1126,
      "a female ": 1127,
      "##surrounded ": 1128,
      "##kaya": 1129,
      "##ging ": 1130,
      "##sand ": 1131,
      "##her .": 1132,
      "##dle ": 1133,
      "##pre": 1134,
      "a fa": 1135,
      "##hiker ": 1136,
      "##in black ": 1137,
      "##ride ": 1138,
      "##para": 1139,
      "##pull": 1140,
      "##over the ": 1141,
      "##road ": 1142,
      "##metal ": 1143,
      "##top of a ": 1144,
      "##pants ": 1145,
      "##white and ": 1146,
      "a closeup ": 1147,
      "##during a ": 1148,
      "chi": 1149,
      "##t-": 1150,
      "##ty ": 1151,
      "##wrest": 1152,
      "##llow ": 1153,
      "##laying ": 1154,
      "a bunch of ": 1155,
      "a bicyclist ": 1156,
      "##in a field .": 1157,
      "##ched ": 1158,
      "##beside a ": 1159,
      "##strea": 1160,
      "##leaping ": 1161,
      "##girls are ": 1162,
      "##guitar": 1163,
      "##in the air .": 1164,
      "##woods .": 1165,
      "a brown and white dog is ": 1166,
      "##kick": 1167,
      "##sits on a ": 1168,
      "##black and ": 1169,
      "##window": 1170,
      "##path .": 1171,
      "##frisbee ": 1172,
      "##ramp .": 1173,
      "##objec": 1174,
      "##collar": 1175,
      "##sidewalk .": 1176,
      "childre": 1177,
      "##y a": 1178,
      "##gi": 1179,
      "##mon": 1180,
      "##crowd ": 1181,
      "a football player ": 1182,
      "##is jumping ": 1183,
      "##ing at the ": 1184,
      "##rides a ": 1185,
      "##s at the ": 1186,
      "##backpa": 1187,
      "##side of a ": 1188,
      "##smok": 1189,
      "the two ": 1190,
      "##trees .": 1191,
      "a biker ": 1192,
      "##soccer ball ": 1193,
      "##tennis ball ": 1194,
      "##long the ": 1195,
      "##towards ": 1196,
      "##each other ": 1197,
      "##night .": 1198,
      "##elder": 1199,
      "##basketball ": 1200,
      "##whilst ": 1201,
      "##gear": 1202,
      "##  a ": 1203,
      "##ts .": 1204,
      "##pon": 1205,
      "##s to ": 1206,
      "a climb": 1207,
      "a young ": 1208,
      "##erse": 1209,
      "##in white ": 1210,
      "##in a green ": 1211,
      "##hockey ": 1212,
      "##ati": 1213,
      "##has a ": 1214,
      "##gray ": 1215,
      "##on the grass .": 1216,
      "##wearing a blue ": 1217,
      "##outside a ": 1218,
      "##beach": 1219,
      "##climbing ": 1220,
      "##rea .": 1221,
      "##watches .": 1222,
      "##phon": 1223,
      "##team ": 1224,
      "##elderly ": 1225,
      "##ds a ": 1226,
      "##pup": 1227,
      "a small ": 1228,
      "##ing in a ": 1229,
      "##his": 1230,
      "## anima": 1231,
      "##stic ": 1232,
      "##und ": 1233,
      "##in a grassy ": 1234,
      "##bath": 1235,
      "##fall": 1236,
      "a base": 1237,
      "##behind a ": 1238,
      "##temp": 1239,
      "##push": 1240,
      "##behind him .": 1241,
      "##bench .": 1242,
      "##bright ": 1243,
      "##picture .": 1244,
      "##ut to ": 1245,
      "##baseball ": 1246,
      "a basketball player ": 1247,
      "##surrounded by ": 1248,
      "##ed a": 1249,
      "##tan": 1250,
      "##ches ": 1251,
      "##up .": 1252,
      "##lif": 1253,
      "##poin": 1254,
      "##very ": 1255,
      "a group of men ": 1256,
      "##playing in a ": 1257,
      "a child is ": 1258,
      "##biker ": 1259,
      "##building ": 1260,
      "##jacket is ": 1261,
      "##black and white ": 1262,
      "a black and brown dog ": 1263,
      "##yard .": 1264,
      "##photo": 1265,
      "##o ": 1266,
      "##blo": 1267,
      "##twe": 1268,
      "##wet": 1269,
      "##cor": 1270,
      "##pro": 1271,
      "##x ": 1272,
      "##ver .": 1273,
      "a dirt ": 1274,
      "##in a yellow ": 1275,
      "##rai": 1276,
      "##less ": 1277,
      "##betwe": 1278,
      "##comp": 1279,
      "##poses ": 1280,
      "a man in a blue ": 1281,
      "##skateboard .": 1282,
      "##plays with a ": 1283,
      "##middle ": 1284,
      "##skier ": 1285,
      "##hands ": 1286,
      "##huge ": 1287,
      "##brick ": 1288,
      "##in his mouth .": 1289,
      "##together ": 1290,
      "##edge ": 1291,
      "##\"\" ": 1292,
      "##be ": 1293,
      "##brid": 1294,
      "##jerse": 1295,
      "##inside a ": 1296,
      "a hiker ": 1297,
      "##g .": 1298,
      "##stone ": 1299,
      "##wait": 1300,
      "##ching ": 1301,
      "##boat": 1302,
      "##lean": 1303,
      "##s .\"": 1304,
      "##players ": 1305,
      "##ell": 1306,
      "##  one ": 1307,
      "##others ": 1308,
      "##veral ": 1309,
      "##padd": 1310,
      "##bubb": 1311,
      "##race .": 1312,
      "##swing": 1313,
      "a girl in a pink ": 1314,
      "##through the a": 1315,
      "##shallow ": 1316,
      "##hanging ": 1317,
      "##that is ": 1318,
      "##horse ": 1319,
      "##woman are ": 1320,
      "##wave .": 1321,
      "##sign ": 1322,
      "##gets ": 1323,
      "##trying ": 1324,
      "##tan dog ": 1325,
      "##under a ": 1326,
      "##rope ": 1327,
      "##motorcycle ": 1328,
      "##struc": 1329,
      "##who is ": 1330,
      "##mily ": 1331,
      "children ": 1332,
      "##  and ": 1333,
      "##ban": 1334,
      "##by .": 1335,
      "##scar": 1336,
      "##ey": 1337,
      "##ran": 1338,
      "##fet": 1339,
      "##ers are ": 1340,
      "##with her ": 1341,
      "##brown dog is ": 1342,
      "##running through a ": 1343,
      "##standing on ": 1344,
      "##standing in front of a ": 1345,
      "##little girl ": 1346,
      "##some": 1347,
      "##sitting on the ": 1348,
      "##out of the ": 1349,
      "##pping ": 1350,
      "##room ": 1351,
      "##older ": 1352,
      "people ": 1353,
      "##between ": 1354,
      "##sy ": 1355,
      "##ss .": 1356,
      "##squ": 1357,
      "##ts a ": 1358,
      "##lle": 1359,
      "##fter": 1360,
      "##ered ": 1361,
      "##rope": 1362,
      "##rock .": 1363,
      "##onto a ": 1364,
      "##ing another ": 1365,
      "##wall": 1366,
      "##wave ": 1367,
      "##bor": 1368,
      "##of water ": 1369,
      "##shirt .": 1370,
      "##ican ": 1371,
      "##field": 1372,
      "##them .": 1373,
      "##cap ": 1374,
      "##by the ": 1375,
      "a man in a red ": 1376,
      "##street": 1377,
      "##chasing a ": 1378,
      "##jumps over a ": 1379,
      "##ready ": 1380,
      "##mountains .": 1381,
      "##swimming pool .": 1382,
      "##floor": 1383,
      "##city .": 1384,
      "## above ": 1385,
      "a boy and a ": 1386,
      "##wheel": 1387,
      "##gy": 1388,
      "##blow": 1389,
      "##trun": 1390,
      "##tru": 1391,
      "##cra": 1392,
      "##cou": 1393,
      "##kit": 1394,
      "##ves .": 1395,
      "##inn": 1396,
      "##hill": 1397,
      "##rel": 1398,
      "##man .": 1399,
      "##todd": 1400,
      "##plastic ": 1401,
      "##in the middle ": 1402,
      "##with two ": 1403,
      "##ller ": 1404,
      "##with a red ": 1405,
      "##with a blue ": 1406,
      "##car .": 1407,
      "##people .": 1408,
      "##standing in a ": 1409,
      "a man in a black ": 1410,
      "##fore": 1411,
      "##dist": 1412,
      "##sidewalk ": 1413,
      "##stands on a ": 1414,
      "##in the air": 1415,
      "a brown and black ": 1416,
      "##concre": 1417,
      "##ded man ": 1418,
      "##each other .": 1419,
      "##together .": 1420,
      "##red and white ": 1421,
      "## and another ": 1422,
      "##kids ": 1423,
      "##body of water .": 1424,
      "##crowd .": 1425,
      "##tro": 1426,
      "##wn": 1427,
      "##cu": 1428,
      "##ked ": 1429,
      "##kne": 1430,
      "##ft ": 1431,
      "##four ": 1432,
      "##ju": 1433,
      "## around ": 1434,
      "##ini": 1435,
      "##in a": 1436,
      "##in green ": 1437,
      "a bear": 1438,
      "##in a pink ": 1439,
      "##way .": 1440,
      "a girl": 1441,
      "##playing on a ": 1442,
      "##in the sand .": 1443,
      "##light ": 1444,
      "##enjo": 1445,
      "##other": 1446,
      "##s an ": 1447,
      "two girls ": 1448,
      "a man in a white ": 1449,
      "a bald ": 1450,
      "##skateboard": 1451,
      "##tramp": 1452,
      "##olin": 1453,
      "##stac": 1454,
      "##catches a ": 1455,
      "##mud": 1456,
      "##ocean ": 1457,
      "##snow covered ": 1458,
      "##in the background .\"": 1459,
      "## at night .": 1460,
      "##path ": 1461,
      "##obstac": 1462,
      "a few ": 1463,
      "##boys are ": 1464,
      "##vie": 1465,
      "##into the a": 1466,
      "##cliff ": 1467,
      "##chases a ": 1468,
      "##gainst a ": 1469,
      "##blonde ": 1470,
      "##trying to ": 1471,
      "##concrete ": 1472,
      "##od ": 1473,
      "##ok ": 1474,
      "##band": 1475,
      "##sil": 1476,
      "##sled ": 1477,
      "##ding a ": 1478,
      "##py ": 1479,
      "##s on a ": 1480,
      "a male ": 1481,
      "##rea ": 1482,
      "a bird ": 1483,
      "##is walking ": 1484,
      "##is being ": 1485,
      "##man in a ": 1486,
      "## and blue ": 1487,
      "##boun": 1488,
      "##e .\"": 1489,
      "##bear": 1490,
      "##sett": 1491,
      "##tack": 1492,
      "##lly ": 1493,
      "##blue and ": 1494,
      "##figh": 1495,
      "##forest": 1496,
      "##yellow": 1497,
      "##ground": 1498,
      "##sub": 1499,
      "##swing ": 1500,
      "##tries ": 1501,
      "a boy in a red ": 1502,
      "##out of a ": 1503,
      "##sunse": 1504,
      "##takes a ": 1505,
      "##suit is ": 1506,
      "##ture": 1507,
      "##hand .": 1508,
      "##step": 1509,
      "##smile": 1510,
      "##in midair ": 1511,
      "##costume ": 1512,
      "##object ": 1513,
      "##bathing ": 1514,
      "##structur": 1515,
      "##trampolin": 1516,
      "##y-": 1517,
      "##yho": 1518,
      "##bir": 1519,
      "##ige ": 1520,
      "##flying ": 1521,
      "## app": 1522,
      "a woman": 1523,
      "##t of ": 1524,
      "##cket ": 1525,
      "##on an ": 1526,
      "##stun": 1527,
      "##dog runs ": 1528,
      "##bal": 1529,
      "##bott": 1530,
      "##plan": 1531,
      "##beside ": 1532,
      "##several ": 1533,
      "##pea": 1534,
      "##coun": 1535,
      "##coat": 1536,
      "##with its ": 1537,
      "##with their ": 1538,
      "##woman in ": 1539,
      "##playing in the ": 1540,
      "##while the ": 1541,
      "##shou": 1542,
      "a black dog and a ": 1543,
      "##merican ": 1544,
      "##frien": 1545,
      "##catching a ": 1546,
      "## an adul": 1547,
      "##taking a ": 1548,
      "##flies ": 1549,
      "##trick on a ": 1550,
      "##day .": 1551,
      "##slee": 1552,
      "##harne": 1553,
      "a family ": 1554,
      "##towards the ": 1555,
      "do": 1556,
      "##ny ": 1557,
      "##ger ": 1558,
      "##ser": 1559,
      "##e are ": 1560,
      "##tic": 1561,
      "##ate ": 1562,
      "##llow": 1563,
      "##ms .": 1564,
      "##mes ": 1565,
      "##cell": 1566,
      "##erman ": 1567,
      "##him ": 1568,
      "##stor": 1569,
      "##with an ": 1570,
      "##bow": 1571,
      "##in the ocean .": 1572,
      "##river .": 1573,
      "##with a stick ": 1574,
      "##standing a": 1575,
      "##woman is ": 1576,
      "##s at ": 1577,
      "##they ": 1578,
      "\"a girl ": 1579,
      "##playing with ": 1580,
      "two brown ": 1581,
      "##jumping in the air ": 1582,
      "##girl are ": 1583,
      "##chair": 1584,
      "##smaller ": 1585,
      "##stick": 1586,
      "##stick .": 1587,
      "##picture": 1588,
      "##kid ": 1589,
      "##phone ": 1590,
      "##winter ": 1591,
      "##game ": 1592,
      "##frisbee .": 1593,
      "##line ": 1594,
      "##clothing ": 1595,
      "##yard ": 1596,
      "##outdoor ": 1597,
      "##umbrel": 1598,
      "##performing a ": 1599,
      "##mark": 1600,
      "##fountain .": 1601,
      "##photogra": 1602,
      "##distanc": 1603,
      "##muddy ": 1604,
      "##umbrella": 1605,
      "##gs .": 1606,
      "##bird ": 1607,
      "##el ": 1608,
      "##ele": 1609,
      "##il ": 1610,
      "##her": 1611,
      "##ds .": 1612,
      "##crowd of ": 1613,
      "##zz": 1614,
      "## as a ": 1615,
      "a dark ": 1616,
      "##th ": 1617,
      "##ant ": 1618,
      "##led": 1619,
      "a gre": 1620,
      "a group ": 1621,
      "##cow": 1622,
      "##lie ": 1623,
      "##ent ": 1624,
      "##es down a ": 1625,
      "##skis ": 1626,
      "##skir": 1627,
      "##fit ": 1628,
      "##s as ": 1629,
      "##pap": 1630,
      "##fall .": 1631,
      "##man and a ": 1632,
      "##busy ": 1633,
      "##outfit ": 1634,
      "a dog runs ": 1635,
      "##swings ": 1636,
      "##sitting in a ": 1637,
      "##guy ": 1638,
      "a boy in a blue ": 1639,
      "##held ": 1640,
      "##rocks ": 1641,
      "##hat is ": 1642,
      "##spor": 1643,
      "##looks on .": 1644,
      "##towards a ": 1645,
      "##shorts is ": 1646,
      "##qui": 1647,
      "##looking at ": 1648,
      "##getting ": 1649,
      "##roller": 1650,
      "##open ": 1651,
      "a closeup of a ": 1652,
      "a climber ": 1653,
      "##puppy ": 1654,
      "##his arms ": 1655,
      "##jersey ": 1656,
      "##fter a ": 1657,
      "##should": 1658,
      "\"two ": 1659,
      "##y and ": 1660,
      "##  and a ": 1661,
      "##ton": 1662,
      "##por": 1663,
      "##fur": 1664,
      "## adul": 1665,
      "##ing his ": 1666,
      "##ire .": 1667,
      "##irbor": 1668,
      "##on her ": 1669,
      "##bed .": 1670,
      "##seat": 1671,
      "##playground .": 1672,
      "##in the snow ": 1673,
      "##couple ": 1674,
      "a boy on a ": 1675,
      "##with a yellow ": 1676,
      "##child": 1677,
      "##on the ground ": 1678,
      "##on the beach ": 1679,
      "\"a group of ": 1680,
      "##girl is ": 1681,
      "##stret": 1682,
      "a crowd ": 1683,
      "##pudd": 1684,
      "##ment .": 1685,
      "a woman is ": 1686,
      "##rock climb": 1687,
      "a brown dog is running ": 1688,
      "##deep ": 1689,
      "##spra": 1690,
      "a man and a woman are ": 1691,
      "##table .": 1692,
      "an elderly ": 1693,
      "##splashing ": 1694,
      "##flowers .": 1695,
      "a crowd of people ": 1696,
      "##sandy ": 1697,
      "##jacket and ": 1698,
      "a baseball player ": 1699,
      "##tank ": 1700,
      "##ready to ": 1701,
      "dogs ": 1702,
      "##numb": 1703,
      "##band ": 1704,
      "##ss": 1705,
      "##sco": 1706,
      "##sni": 1707,
      "##ev": 1708,
      "##wn ": 1709,
      "##wet ": 1710,
      "##lf ": 1711,
      "##dra": 1712,
      "##pit": 1713,
      "##flu": 1714,
      "##ved ": 1715,
      "##ing to ": 1716,
      "##ere are ": 1717,
      "##lad": 1718,
      "##mask": 1719,
      "a bu": 1720,
      "a bicyc": 1721,
      "##le of ": 1722,
      "## and two ": 1723,
      "##ity ": 1724,
      "##bag ": 1725,
      "##look ": 1726,
      "##box": 1727,
      "##upside ": 1728,
      "a man on a ": 1729,
      "##playing a ": 1730,
      "##in the woods .": 1731,
      "a boy in ": 1732,
      "##walking on a ": 1733,
      "##graff": 1734,
      "a girl in ": 1735,
      "##fire": 1736,
      "##running on a ": 1737,
      "a group of children ": 1738,
      "##wearing a white ": 1739,
      "##green grass .": 1740,
      "##pink": 1741,
      "##leaves .": 1742,
      "##dressed a": 1743,
      "##vest ": 1744,
      "##full ": 1745,
      "##black and white dog ": 1746,
      "##tennis ball .": 1747,
      "##carrying ": 1748,
      "##toward ": 1749,
      "##hangs ": 1750,
      "##snowboard ": 1751,
      "##snowboarder ": 1752,
      "##horse": 1753,
      "##is abo": 1754,
      "##flip ": 1755,
      "##ramp ": 1756,
      "##waves ": 1757,
      "##sign .": 1758,
      "##clothes ": 1759,
      "##making a ": 1760,
      "##outdoors .": 1761,
      "##surfboard ": 1762,
      "##ing an orange ": 1763,
      "##phone .": 1764,
      "##compet": 1765,
      "##floor .": 1766,
      "a bearded man ": 1767,
      "##bathing suit ": 1768,
      "##harness ": 1769,
      "##photograph": 1770,
      "##tongu": 1771,
      "##sniff": 1772,
      "##graffiti": 1773,
      "##ying on a ": 1774,
      "##uti": 1775,
      "##gar": 1776,
      "##spin": 1777,
      "##ts and ": 1778,
      "##tire ": 1779,
      "##lled ": 1780,
      "##dry ": 1781,
      "##cer": 1782,
      "##p .": 1783,
      "##pe .": 1784,
      "##mas ": 1785,
      "##the ball ": 1786,
      "a blu": 1787,
      "##one": 1788,
      "##onto ": 1789,
      "##sts ": 1790,
      "##stra": 1791,
      "##on a beach .": 1792,
      "##hold ": 1793,
      "##sed ": 1794,
      "##out .": 1795,
      "##atu": 1796,
      "##coming ": 1797,
      "a boy wearing ": 1798,
      "a boy jumps ": 1799,
      "##  with a ": 1800,
      "##wears a ": 1801,
      "##on the grass ": 1802,
      "##black dogs ": 1803,
      "a group of young ": 1804,
      "##board ": 1805,
      "##ing .\"": 1806,
      "##running in a ": 1807,
      "##shopping ": 1808,
      "##little boy ": 1809,
      "##follow": 1810,
      "a child in a ": 1811,
      "##bikini": 1812,
      "##overlook": 1813,
      "##gare": 1814,
      "##girl .": 1815,
      "##rug": 1816,
      "##trail": 1817,
      "##head .": 1818,
      "##through the snow .": 1819,
      "a person is ": 1820,
      "the three ": 1821,
      "a bike ": 1822,
      "##in its mouth ": 1823,
      "##gging ": 1824,
      "##barri": 1825,
      "##float": 1826,
      "## as he ": 1827,
      "##is at": 1828,
      "##hat and ": 1829,
      "##dress is ": 1830,
      "##looking at the ": 1831,
      "##steps ": 1832,
      "##room .": 1833,
      "##cigare": 1834,
      "##in a field of ": 1835,
      "##backpack ": 1836,
      "##life ": 1837,
      "##edge of a ": 1838,
      "##someone ": 1839,
      "##toddler ": 1840,
      "##fighting ": 1841,
      "##yhound ": 1842,
      "##glo": 1843,
      "##slo": 1844,
      "##ssi": 1845,
      "##es": 1846,
      "##e a": 1847,
      "##ese ": 1848,
      "##ting a ": 1849,
      "##ring ": 1850,
      "##mic": 1851,
      "##cle": 1852,
      "##cur": 1853,
      "##-haired ": 1854,
      "##ladi": 1855,
      "##the ball .": 1856,
      "##in their ": 1857,
      "##to another ": 1858,
      "##wood ": 1859,
      "##with another ": 1860,
      "##on a dirt ": 1861,
      "##plat": 1862,
      "##hoo": 1863,
      "a man dressed in ": 1864,
      "##in the snow": 1865,
      "##in the water ": 1866,
      "##d .\"": 1867,
      "##en .": 1868,
      "##poli": 1869,
      "##pole .": 1870,
      "##ing around a ": 1871,
      "##ride .": 1872,
      "##past a ": 1873,
      "##green": 1874,
      "##while two ": 1875,
      "##she ": 1876,
      "two children ": 1877,
      "two dogs are ": 1878,
      "##running on ": 1879,
      "##wearing a black ": 1880,
      "##park": 1881,
      "##leash": 1882,
      "##climbs a ": 1883,
      "##suit": 1884,
      "##racing ": 1885,
      "##skateboarder ": 1886,
      "##chair ": 1887,
      "##going ": 1888,
      "##goes ": 1889,
      "##sitting on ": 1890,
      "##guys ": 1891,
      "##watching ": 1892,
      "##tree": 1893,
      "##waterfall .": 1894,
      "##rocks .": 1895,
      "##snowy mountain .": 1896,
      "##off of a ": 1897,
      "a black and brown dog is ": 1898,
      "##fence ": 1899,
      "##lake ": 1900,
      "##looking at a ": 1901,
      "##sign": 1902,
      "an older ": 1903,
      "##for the camera .": 1904,
      "## about to ": 1905,
      "##scen": 1906,
      "##rope .": 1907,
      "##brown and white ": 1908,
      "##cement ": 1909,
      "##al .": 1910,
      "##city street .": 1911,
      "##gear ": 1912,
      "## animal": 1913,
      "##forest .": 1914,
      "##sunset .": 1915,
      "## an adult ": 1916,
      "##upside down ": 1917,
      "##utiful ": 1918,
      "##micro": 1919,
      "##blan": 1920,
      "##spo": 1921,
      "##emp": 1922,
      "##hur": 1923,
      "##ter .": 1924,
      "##den": 1925,
      "##mx ": 1926,
      "##cla": 1927,
      "##kes ": 1928,
      "##vol": 1929,
      "##infla": 1930,
      "a kaya": 1931,
      "##doing ": 1932,
      "##in her ": 1933,
      "##in shallow ": 1934,
      "a bea": 1935,
      "##ar ": 1936,
      "##sto": 1937,
      "##statu": 1938,
      "##in a park .": 1939,
      "##on its ": 1940,
      "##book": 1941,
      "##ley": 1942,
      "##le are ": 1943,
      "##legs ": 1944,
      "##hoop": 1945,
      "##jump .": 1946,
      "##skinn": 1947,
      "##no ": 1948,
      "##riding on a ": 1949,
      "##woman in a ": 1950,
      "##forma": 1951,
      "##camp": 1952,
      "two dogs ": 1953,
      "two boys ": 1954,
      "##outf": 1955,
      "there are ": 1956,
      "##back .": 1957,
      "##dis": 1958,
      "##gath": 1959,
      "a cyclist ": 1960,
      "##stands in the ": 1961,
      "##stands in front of a ": 1962,
      "##swim ": 1963,
      "##foot ": 1964,
      "##ffy ": 1965,
      "##turn": 1966,
      "##short ": 1967,
      "##swimsuit ": 1968,
      "##surfer ": 1969,
      "##watching a ": 1970,
      "##clou": 1971,
      "##building": 1972,
      "##sits in a ": 1973,
      "##sprin": 1974,
      "##pie": 1975,
      "##pile of ": 1976,
      "##chew": 1977,
      "##snowboard": 1978,
      "##covered in ": 1979,
      "##horses ": 1980,
      "##cross": 1981,
      "##posing for a ": 1982,
      "##hats ": 1983,
      "## attemp": 1984,
      "##motorcycle .": 1985,
      "##in midair .": 1986,
      "##brown and white dog ": 1987,
      "##pose for a ": 1988,
      "##during a game .": 1989,
      "##t-shirt ": 1990,
      "a young boy ": 1991,
      "## animal ": 1992,
      "##corn": 1993,
      "##trunks ": 1994,
      "##kneel": 1995,
      "##obstacle ": 1996,
      "##view ": 1997,
      "##tries to ": 1998,
      "##ballo": 1999,
      "##number ": 2000,
      "##fluffy ": 2001,
      "##is about to ": 2002,
      "##tongue ": 2003,
      "##rugby ": 2004,
      "##blank": 2005,
      "bo": 2006,
      "men ": 2007,
      "##own": 2008,
      "##nic ": 2009,
      "##b ": 2010,
      "##brea": 2011,
      "##e-": 2012,
      "##t and ": 2013,
      "##d and ": 2014,
      "##de .": 2015,
      "##med ": 2016,
      "##pat": 2017,
      "##vid": 2018,
      "## all ": 2019,
      "a white ": 2020,
      "a white dog ": 2021,
      "##resta": 2022,
      "##mat": 2023,
      "## an ar": 2024,
      "##cket": 2025,
      "##cket .": 2026,
      "##ons ": 2027,
      "##rap": 2028,
      "##both ": 2029,
      "a man with a ": 2030,
      "##bed ": 2031,
      "##playground ": 2032,
      "##in the grass ": 2033,
      "##watch ": 2034,
      "##coa": 2035,
      "##tall ": 2036,
      "##with a pink ": 2037,
      "##his bike ": 2038,
      "##walks a": 2039,
      "##dogs .": 2040,
      "##ing around ": 2041,
      "##can ": 2042,
      "##girl in ": 2043,
      "two children are ": 2044,
      "##falle": 2045,
      "##running down a ": 2046,
      "##jumping into a ": 2047,
      "##by two ": 2048,
      "a black and a ": 2049,
      "a man in a yellow ": 2050,
      "##bike": 2051,
      "##nearby .": 2052,
      "##train": 2053,
      "##walking down the ": 2054,
      "##jacket .": 2055,
      "##trick .": 2056,
      "a girl in a white ": 2057,
      "##food ": 2058,
      "a woman in a ": 2059,
      "##ve a ": 2060,
      "##behind her .": 2061,
      "##sunglasse": 2062,
      "##ski ": 2063,
      "##shadow": 2064,
      "##snowboard .": 2065,
      "##smiling .": 2066,
      "##land": 2067,
      "##helmet": 2068,
      "##is airbor": 2069,
      "##into the water .": 2070,
      "##lined ": 2071,
      "##in a blue shirt ": 2072,
      "##try ": 2073,
      "##mouth ope": 2074,
      "##roller ": 2075,
      "##drinking ": 2076,
      "##rail .": 2077,
      "##talking ": 2078,
      "##spec": 2079,
      "##surfboard .": 2080,
      "##cano": 2081,
      "##gainst ": 2082,
      "an asian ": 2083,
      "##pulling a ": 2084,
      "##stream .": 2085,
      "##window .": 2086,
      "##collar ": 2087,
      "##falling ": 2088,
      "a dirt biker ": 2089,
      "##between two ": 2090,
      "##in the middle of a ": 2091,
      "a brown and black dog ": 2092,
      "##silver ": 2093,
      "##sports ": 2094,
      "##rollerb": 2095,
      "##competiti": 2096,
      "##empty ": 2097,
      "##volley": 2098,
      "##restaur": 2099,
      "##gle ": 2100,
      "##get ": 2101,
      "##grin": 2102,
      "##tto": 2103,
      "##tat": 2104,
      "##alie ": 2105,
      "##ls ": 2106,
      "##min": 2107,
      "##f .": 2108,
      "##fire ": 2109,
      "##vel": 2110,
      "a kid ": 2111,
      "##hitt": 2112,
      "##hits a ": 2113,
      "##res ": 2114,
      "## another .": 2115,
      "a be": 2116,
      "##is holding a ": 2117,
      "##is riding a ": 2118,
      "##ster ": 2119,
      "##ing an a": 2120,
      "##of an ": 2121,
      "## and red ": 2122,
      "##cho": 2123,
      "##chu": 2124,
      "##ching a ": 2125,
      "##bag": 2126,
      "##on top of a ": 2127,
      "##boo": 2128,
      "##botto": 2129,
      "a man dressed ": 2130,
      "a man in an orange ": 2131,
      "##beg": 2132,
      "##beige ": 2133,
      "##player": 2134,
      "## arm ": 2135,
      "##river ": 2136,
      "##with red ": 2137,
      "##with his arms ": 2138,
      "##lies ": 2139,
      "##light": 2140,
      "##with a white ": 2141,
      "##with a black ": 2142,
      "##jumping a ": 2143,
      "##ena": 2144,
      "##end ": 2145,
      "##ed man ": 2146,
      "##es in a ": 2147,
      "##wearing an orange ": 2148,
      "##hair": 2149,
      "##ice .": 2150,
      "##blue": 2151,
      "##ing along a ": 2152,
      "##five ": 2153,
      "##woman .": 2154,
      "##passe": 2155,
      "##carpe": 2156,
      "##playing in ": 2157,
      "##brown dog are ": 2158,
      "a brown dog and a ": 2159,
      "two girls are ": 2160,
      "##running through ": 2161,
      "##shoes ": 2162,
      "##standing on the ": 2163,
      "##t .\"": 2164,
      "##in front of the ": 2165,
      "a child in ": 2166,
      "##leash ": 2167,
      "##sun ": 2168,
      "##skateboarding ": 2169,
      "##crou": 2170,
      "##walking on the ": 2171,
      "##tricks ": 2172,
      "##gold ": 2173,
      "##gogg": 2174,
      "##runs through the ": 2175,
      "##out of ": 2176,
      "##help": 2177,
      "##rock face .": 2178,
      "##vehi": 2179,
      "##soccer .": 2180,
      "##jean": 2181,
      "##football .": 2182,
      "##mud ": 2183,
      "##slide ": 2184,
      "##field of ": 2185,
      "##soccer ball .": 2186,
      "##taking ": 2187,
      "##tennis player ": 2188,
      "## at the beach .": 2189,
      "##doing a skateboard ": 2190,
      "##under ": 2191,
      "##while a man ": 2192,
      "##hat .": 2193,
      "##outside of a ": 2194,
      "##splashes ": 2195,
      "##smiles .": 2196,
      "##course .": 2197,
      "##scu": 2198,
      "##spea": 2199,
      "##performs a ": 2200,
      "a boy and ": 2201,
      "a man and two ": 2202,
      "an a": 2203,
      "##painted ": 2204,
      "##house .": 2205,
      "##guitar .": 2206,
      "##prote": 2207,
      "##bridge .": 2208,
      "##waiting ": 2209,
      "##through the air ": 2210,
      "## above the ": 2211,
      "##kitch": 2212,
      "##just ": 2213,
      "##bandan": 2214,
      "##bounc": 2215,
      "##steps .": 2216,
      "##structure ": 2217,
      "##paper ": 2218,
      "##scoo": 2219,
      "a blue ": 2220,
      "##overlooking a ": 2221,
      "##trail .": 2222,
      "##is attemp": 2223,
      "##platfor": 2224,
      "##hurd": 2225,
      "##inflatable ": 2226,
      "a kayaker ": 2227,
      "##sprink": 2228,
      "##fallen ": 2229,
      "two": 2230,
      "##bran": 2231,
      "##tun": 2232,
      "##ts are ": 2233,
      "##wings ": 2234,
      "##c ": 2235,
      "##crea": 2236,
      "##kers ": 2237,
      "##fing": 2238,
      "##ffe": 2239,
      "##fter ": 2240,
      "##va": 2241,
      "## along a ": 2242,
      "## as another ": 2243,
      "##indi": 2244,
      "##indoor": 2245,
      "##inter": 2246,
      "##s in a ": 2247,
      "a child": 2248,
      "##thle": 2249,
      "##him": 2250,
      "##lays ": 2251,
      "##laying on a ": 2252,
      "##does ": 2253,
      "##making ": 2254,
      "##of another ": 2255,
      "##wave": 2256,
      "##balan": 2257,
      "##ears ": 2258,
      "##ous ": 2259,
      "a boy does a ": 2260,
      "##tator": 2261,
      "##tached ": 2262,
      "##with a green ": 2263,
      "##opposing ": 2264,
      "##his skateboard ": 2265,
      "##on the street .": 2266,
      "##pole ": 2267,
      "##round .": 2268,
      "##running .": 2269,
      "a group of dogs ": 2270,
      "a group of boys ": 2271,
      "##cat ": 2272,
      "##while people ": 2273,
      "two boys are ": 2274,
      "##looks at a ": 2275,
      "##standing next to a ": 2276,
      "a dog jumps ": 2277,
      "##part": 2278,
      "##climbs ": 2279,
      "##chas": 2280,
      "##chasing ": 2281,
      "##track": 2282,
      "##behind .": 2283,
      "##walking down a ": 2284,
      "##teena": 2285,
      "##go ": 2286,
      "##face": 2287,
      "##catch ": 2288,
      "##shore ": 2289,
      "a boy in a green ": 2290,
      "##wooded a": 2291,
      "##mountains ": 2292,
      "##behind them .": 2293,
      "##mus": 2294,
      "##muzz": 2295,
      "##in the background": 2296,
      "##slides down a ": 2297,
      "##grassy a": 2298,
      "##takes ": 2299,
      "##take a ": 2300,
      "a couple of ": 2301,
      "##uniforms ": 2302,
      "##girls in ": 2303,
      "##eating ": 2304,
      "##that sa": 2305,
      "##cheer": 2306,
      "##top is ": 2307,
      "a baby is ": 2308,
      "##dancing ": 2309,
      "##makes a ": 2310,
      "## at an ": 2311,
      "a blond girl ": 2312,
      "##court .": 2313,
      "a blonde woman ": 2314,
      "##railing ": 2315,
      "##sit on a ": 2316,
      "##fishing ": 2317,
      "##photo ": 2318,
      "##wheel ": 2319,
      "##striped shirt ": 2320,
      "##blond ": 2321,
      "##ction ": 2322,
      "##stairs .": 2323,
      "##pond .": 2324,
      "a dirt bike ": 2325,
      "##bridge ": 2326,
      "##gym": 2327,
      "a girl and ": 2328,
      "##into the air ": 2329,
      "##store .": 2330,
      "two brown dogs are ": 2331,
      "##bikini ": 2332,
      "a bike rider ": 2333,
      "##ladies ": 2334,
      "##piece ": 2335,
      "##spectator": 2336,
      "##restauran": 2337,
      "##tatto": 2338,
      "##hurdle .": 2339,
      "girl": 2340,
      "##ning ": 2341,
      "##na ": 2342,
      "##gat": 2343,
      "## of a ": 2344,
      "##scap": 2345,
      "##ed .": 2346,
      "##equi": 2347,
      "##two": 2348,
      "##ly": 2349,
      "##dru": 2350,
      "##mm": 2351,
      "##mel": 2352,
      "##cen": 2353,
      "##ke a ": 2354,
      "##pe ": 2355,
      "##-up ": 2356,
      "##vy ": 2357,
      "## american ": 2358,
      "##ine ": 2359,
      "##s the ": 2360,
      "##s   ": 2361,
      "a skier ": 2362,
      "##thrown ": 2363,
      "##ing her ": 2364,
      "##er and ": 2365,
      "##dock ": 2366,
      "a bmx ": 2367,
      "##st .": 2368,
      "##stop": 2369,
      "##man in ": 2370,
      "##man 's ": 2371,
      "##tou": 2372,
      "##bat": 2373,
      "##on a red ": 2374,
      "##on a snowy ": 2375,
      "##hood": 2376,
      "##home": 2377,
      "a go": 2378,
      "a man holding a ": 2379,
      "a man holds a ": 2380,
      "##sea": 2381,
      "##lden ": 2382,
      "## arm": 2383,
      "a boy jumping ": 2384,
      "a boy in blue ": 2385,
      "##rist": 2386,
      "##lip": 2387,
      "##jumping on a ": 2388,
      "##to his ": 2389,
      "##ure ": 2390,
      "##ed by a ": 2391,
      "##sky .": 2392,
      "##wear ": 2393,
      "##haw": 2394,
      "##have ": 2395,
      "##his head ": 2396,
      "##ici": 2397,
      "##dog and ": 2398,
      "##through an ": 2399,
      "\"a black ": 2400,
      "##pack": 2401,
      "##cart ": 2402,
      "##car is ": 2403,
      "##playing soccer ": 2404,
      "##while others ": 2405,
      "two men ": 2406,
      "##shoo": 2407,
      "##many ": 2408,
      "##new": 2409,
      "##wearing a pink ": 2410,
      "##sitting at a ": 2411,
      "##bikes ": 2412,
      "##downhill ": 2413,
      "##leather ": 2414,
      "##diu": 2415,
      "##racer ": 2416,
      "##girl and ": 2417,
      "##traff": 2418,
      "##crosse": 2419,
      "##walking in the ": 2420,
      "##mohaw": 2421,
      "##going down a ": 2422,
      "##golden ": 2423,
      "##dogs play ": 2424,
      "##feet ": 2425,
      "##sitting in ": 2426,
      "##shore .": 2427,
      "##vel ": 2428,
      "##watches ": 2429,
      "##frican": 2430,
      "##sunny ": 2431,
      "##soccer player ": 2432,
      "##shaking ": 2433,
      "##shakes ": 2434,
      "a man in black ": 2435,
      "##while another man ": 2436,
      "##dark": 2437,
      "##floor ": 2438,
      "##in his mouth": 2439,
      "##flag ": 2440,
      "##street with ": 2441,
      "##flight ": 2442,
      "##grassy field .": 2443,
      "##shirt and jeans ": 2444,
      "##bicycle .": 2445,
      "##red and ": 2446,
      "##big   ": 2447,
      "##line .": 2448,
      "##boy and ": 2449,
      "##smiles ": 2450,
      "##driv": 2451,
      "##dribb": 2452,
      "##wher": 2453,
      "##balls .": 2454,
      "##drink": 2455,
      "##drink ": 2456,
      "a big dog ": 2457,
      "##who ": 2458,
      "##\"\" .\"": 2459,
      "##sweatshirt ": 2460,
      "##paint ": 2461,
      "##house ": 2462,
      "##prepa": 2463,
      "##t-shirt is ": 2464,
      "##guitar ": 2465,
      "##kicking a ": 2466,
      "a climber is ": 2467,
      "##in a grassy field .": 2468,
      "##point": 2469,
      "##wetsuit ": 2470,
      "##wetsuit is ": 2471,
      "##bubbles ": 2472,
      "##scarf ": 2473,
      "##squir": 2474,
      "##truck ": 2475,
      "##truck .": 2476,
      "##couch .": 2477,
      "##setting ": 2478,
      "##trampoline ": 2479,
      "##trampoline .": 2480,
      "## appear": 2481,
      "##stunt ": 2482,
      "##ledge ": 2483,
      "##held by a ": 2484,
      "##rock climbing .": 2485,
      "##toward the ": 2486,
      "##cigarett": 2487,
      "##hoodi": 2488,
      "there are two ": 2489,
      "##landscap": 2490,
      "##vehic": 2491,
      "##balanc": 2492,
      "##equip": 2493,
      "man": 2494,
      "##net .": 2495,
      "##ges ": 2496,
      "##bli": 2497,
      "##sing": 2498,
      "##sof": 2499,
      "##swa": 2500,
      "##sca": 2501,
      "##eu": 2502,
      "##id ": 2503,
      "##im ": 2504,
      "##te .": 2505,
      "##ts and a ": 2506,
      "##ling a ": 2507,
      "##dea": 2508,
      "##ce .": 2509,
      "##cand": 2510,
      "##cri": 2511,
      "##clu": 2512,
      "##fra": 2513,
      "## ad": 2514,
      "##in an a": 2515,
      "##ins to ": 2516,
      "a smiling ": 2517,
      "##d of ": 2518,
      "##hiking ": 2519,
      "##retri": 2520,
      "## another": 2521,
      "##cking ": 2522,
      "##ons .": 2523,
      "##onlook": 2524,
      "##is playing ": 2525,
      "##is running ": 2526,
      "##stati": 2527,
      "##unny ": 2528,
      "##of an a": 2529,
      "##in a race .": 2530,
      "##toy": 2531,
      "##bat ": 2532,
      "##on grass .": 2533,
      "##on their ": 2534,
      "##on it .": 2535,
      "##ral ": 2536,
      "##rain .": 2537,
      "##boy .": 2538,
      "##ids ": 2539,
      "##les a ": 2540,
      "##leans ": 2541,
      "##on a skateboard ": 2542,
      "##on a swing .": 2543,
      "##of his ": 2544,
      "a man doing a ": 2545,
      "##beer ": 2546,
      "##seen ": 2547,
      "##set of ": 2548,
      "a boat ": 2549,
      "a boy holding a ": 2550,
      "##like a ": 2551,
      "##with a ball ": 2552,
      "##sky": 2553,
      "##skate ": 2554,
      "##etra": 2555,
      "##hair .": 2556,
      "##shirts ": 2557,
      "##on the side of a ": 2558,
      "##black dog are ": 2559,
      "##ing against a ": 2560,
      "##caugh": 2561,
      "\"a dog ": 2562,
      "\"a person ": 2563,
      "##paja": 2564,
      "##paved ": 2565,
      "##greyhound ": 2566,
      "##while standing ": 2567,
      "##while holding a ": 2568,
      "##while holding ": 2569,
      "##jumping up ": 2570,
      "##boy in a ": 2571,
      "##neck": 2572,
      "##dres": 2573,
      "##wearing a brown ": 2574,
      "##wearing a green ": 2575,
      "a black and white ": 2576,
      "## an orange ": 2577,
      "##parking ": 2578,
      "##wearing red ": 2579,
      "##dire": 2580,
      "##races ": 2581,
      "##racetra": 2582,
      "##off the ": 2583,
      "##tie ": 2584,
      "##tion ": 2585,
      "##hind ": 2586,
      "##chair .": 2587,
      "##train ": 2588,
      "##stands next to a ": 2589,
      "##female ": 2590,
      "##through the grass .": 2591,
      "##dirt .": 2592,
      "##dirty ": 2593,
      "##shirt and white ": 2594,
      "##brown dog .": 2595,
      "##surf .": 2596,
      "##tted ": 2597,
      "a person in a ": 2598,
      "##tent ": 2599,
      "##through some ": 2600,
      "##over his ": 2601,
      "##muse": 2602,
      "##deser": 2603,
      "##holding up a ": 2604,
      "##ggy ": 2605,
      "##skiing down a ": 2606,
      "##toward a ": 2607,
      "a man in blue ": 2608,
      "##tube ": 2609,
      "##hula": 2610,
      "##bar ": 2611,
      "##bar .": 2612,
      "##snowboarding ": 2613,
      "##horse .": 2614,
      "##sail": 2615,
      "##while a woman ": 2616,
      "##in his mouth ": 2617,
      "##back of a ": 2618,
      "##team": 2619,
      "##naked ": 2620,
      "##riding down a ": 2621,
      "##sits a": 2622,
      "##drinks ": 2623,
      "##flower ": 2624,
      "##cross the grass .": 2625,
      "##top a ": 2626,
      "##top .": 2627,
      "##headband ": 2628,
      "##cliff .": 2629,
      "##throwing a ": 2630,
      "a crowd of people are ": 2631,
      "a man and woman ": 2632,
      "##crowded ": 2633,
      "##fountain ": 2634,
      "##laughing ": 2635,
      "people are ": 2636,
      "##stairca": 2637,
      "##kayak ": 2638,
      "##parachu": 2639,
      "a bunch of people ": 2640,
      "##black and red ": 2641,
      "##mong ": 2642,
      "##smoking a ": 2643,
      "##hockey player ": 2644,
      "a baseball ": 2645,
      "##block": 2646,
      "##block ": 2647,
      "##leaning ": 2648,
      "##through the air .": 2649,
      "##out of the water .": 2650,
      "##gym .": 2651,
      "a bald man ": 2652,
      "##setting .": 2653,
      "##subway ": 2654,
      "##structure .": 2655,
      "a woman and a ": 2656,
      "##friends ": 2657,
      "##market .": 2658,
      "##distance .": 2659,
      "##umbrella .": 2660,
      "a group of": 2661,
      "##furry ": 2662,
      "a bicycle ": 2663,
      "##sunglasses and a ": 2664,
      "##rollerblad": 2665,
      "##competition .": 2666,
      "##begins to ": 2667,
      "##cheerlea": 2668,
      "##gymna": 2669,
      "girls ": 2670,
      "##hooded ": 2671,
      "a goalie ": 2672,
      "## appears to ": 2673,
      "##cigarette .": 2674,
      "##pajamas ": 2675,
      "\"three ": 2676,
      "##old ": 2677,
      "##nel": 2678,
      "##gro": 2679,
      "##ged ": 2680,
      "##sin": 2681,
      "##san": 2682,
      "##emer": 2683,
      "##e at a ": 2684,
      "##ring .": 2685,
      "##w .": 2686,
      "##lur": 2687,
      "##dun": 2688,
      "##mir": 2689,
      "##me .": 2690,
      "##cut ": 2691,
      "##kar": 2692,
      "##ft": 2693,
      "##far": 2694,
      "##-covered ": 2695,
      "##ven": 2696,
      "##2 ": 2697,
      "## after ": 2698,
      "##inside of a ": 2699,
      "##e of a ": 2700,
      "##s while ": 2701,
      "a da": 2702,
      "a snowboarder ": 2703,
      "a skateboarder ": 2704,
      "##erent ": 2705,
      "##lax": 2706,
      "##refoot ": 2707,
      "##relax": 2708,
      "##mach": 2709,
      "##onto the ": 2710,
      "##is sitting on a ": 2711,
      "##man wearing ": 2712,
      "##in a pool .": 2713,
      "##in a lake .": 2714,
      "##waits ": 2715,
      "##wading ": 2716,
      "##le in the ": 2717,
      "##ton ": 2718,
      "##ches a ": 2719,
      "##bald ": 2720,
      "##batt": 2721,
      "##bag .": 2722,
      "##log ": 2723,
      "##raft ": 2724,
      "##on a beach ": 2725,
      "a gold": 2726,
      "a man jumps ": 2727,
      "##sel": 2728,
      "##plays a ": 2729,
      "##pes ": 2730,
      "##pett": 2731,
      "##comes ": 2732,
      "a boy plays ": 2733,
      "a boy holds a ": 2734,
      "##riz": 2735,
      "##lit ": 2736,
      "##up the ": 2737,
      "##tail ": 2738,
      "##with a tennis ball ": 2739,
      "##jumping .": 2740,
      "##ent .": 2741,
      "##sk .": 2742,
      "##sky ": 2743,
      "##blue .": 2744,
      "##pole": 2745,
      "##posit": 2746,
      "##ing as ": 2747,
      "##ing at ": 2748,
      "##ride a ": 2749,
      "##fight ": 2750,
      "##fight": 2751,
      "##woman with ": 2752,
      "##low .": 2753,
      "##s at": 2754,
      "##them": 2755,
      "##soon": 2756,
      "a group of four ": 2757,
      "##cast": 2758,
      "##camou": 2759,
      "\"a black dog ": 2760,
      "##board .": 2761,
      "##paper": 2762,
      "##pave": 2763,
      "##shirt   ": 2764,
      "##girl in a ": 2765,
      "##brown   ": 2766,
      "##while his ": 2767,
      "##looks at ": 2768,
      "##shore": 2769,
      "##man and ": 2770,
      "a black man ": 2771,
      "##dress .": 2772,
      "##two people ": 2773,
      "##bull ": 2774,
      "##bucket ": 2775,
      "##outside": 2776,
      "a dog chases a ": 2777,
      "##beautiful ": 2778,
      "a child in a red ": 2779,
      "##skating ": 2780,
      "##down and ": 2781,
      "##wearing black ": 2782,
      "##in front of a large ": 2783,
      "##in front of a crowd .": 2784,
      "##diff": 2785,
      "##dienc": 2786,
      "##gaz": 2787,
      "##gather ": 2788,
      "##train .": 2789,
      "##reading a ": 2790,
      "##teeth": 2791,
      "a girl in a red ": 2792,
      "##swimm": 2793,
      "##swims ": 2794,
      "##shirt and a ": 2795,
      "##shirtless ": 2796,
      "##younger ": 2797,
      "##surfing ": 2798,
      "##surfing a ": 2799,
      "##surfing .": 2800,
      "##stage .": 2801,
      "a woman in ": 2802,
      "##over some ": 2803,
      "##fully ": 2804,
      "##behind it .": 2805,
      "##water and ": 2806,
      "##glass ": 2807,
      "##close ": 2808,
      "##picnic ": 2809,
      "##mul": 2810,
      "##mud .": 2811,
      "##dirt bike ": 2812,
      "##bench": 2813,
      "##play in the ": 2814,
      "##on his back ": 2815,
      "##ting to ": 2816,
      "##dust": 2817,
      "##sitting on a bench ": 2818,
      "##snowy field .": 2819,
      "##hands .": 2820,
      "##handstand ": 2821,
      "##hang ": 2822,
      "##stuffe": 2823,
      "##top of ": 2824,
      "##off his ": 2825,
      "##walks down the ": 2826,
      "##something .": 2827,
      "##flage ": 2828,
      "a dog is jumping ": 2829,
      "##waves .": 2830,
      "##make a ": 2831,
      "##is standing in front of a ": 2832,
      "##course ": 2833,
      "##jogg": 2834,
      "##running along a ": 2835,
      "a big brown dog ": 2836,
      "##ghtly ": 2837,
      "##in midair": 2838,
      "##spee": 2839,
      "##body of water ": 2840,
      "##ice crea": 2841,
      "##near the water .": 2842,
      "##biting ": 2843,
      "##climbing a rock ": 2844,
      "##in an orange shirt ": 2845,
      "##hard": 2846,
      "##ctive ": 2847,
      "##running through the snow .": 2848,
      "##parade .": 2849,
      "##wrestling ": 2850,
      "##wrestler ": 2851,
      "a bicyclist is ": 2852,
      "##kicks a ": 2853,
      "##ing at the camera .": 2854,
      "the two dogs are ": 2855,
      "##paddling ": 2856,
      "##crash": 2857,
      "##couch ": 2858,
      "##forest ": 2859,
      "##into the air .": 2860,
      "##blue and yellow ": 2861,
      "##cellphone .": 2862,
      "##with a stick in its mouth .": 2863,
      "##elec": 2864,
      "##skirt ": 2865,
      "## adults ": 2866,
      "##puddle ": 2867,
      "##full of ": 2868,
      "##gard": 2869,
      "##slope .": 2870,
      "##clear ": 2871,
      "##police ": 2872,
      "##green and ": 2873,
      "##spotted ": 2874,
      "## attempts ": 2875,
      "##vide": 2876,
      "##rapid": 2877,
      "##canoe ": 2878,
      "##volleyball ": 2879,
      "a beige ": 2880,
      "##end of a ": 2881,
      "##blue and white ": 2882,
      "##tricks on a ": 2883,
      "##scooter ": 2884,
      "##sprinkl": 2885,
      "##tunnel": 2886,
      "##homeless ": 2887,
      "##news": 2888,
      "##sunny day .": 2889,
      "##landscape .": 2890,
      "##parking lo": 2891,
      "##santa": 2892,
      "a golden ": 2893,
      "##camouflage ": 2894,
      "##different ": 2895,
      "##stuffed": 2896,
      "##ys a ": 2897,
      "##o .": 2898,
      "##udienc": 2899,
      "##glid": 2900,
      "## hoop": 2901,
      "##ber": 2902,
      "##b .": 2903,
      "##bra": 2904,
      "##sup": 2905,
      "##ssing ": 2906,
      "##swor": 2907,
      "##scho": 2908,
      "##ep": 2909,
      "##es are ": 2910,
      "##ie ": 2911,
      "##is a ": 2912,
      "##tv": 2913,
      "##t and a ": 2914,
      "##am ": 2915,
      "##wr": 2916,
      "##wn .": 2917,
      "##mea": 2918,
      "##moun": 2919,
      "##coff": 2920,
      "##ke": 2921,
      "##key ": 2922,
      "##pil": 2923,
      "##fir": 2924,
      "##fle": 2925,
      "##fire .": 2926,
      "##funny ": 2927,
      "##jun": 2928,
      "##ving a ": 2929,
      "##val .": 2930,
      "## are": 2931,
      "## along the ": 2932,
      "## against a ": 2933,
      "##instru": 2934,
      "a m": 2935,
      "a race ": 2936,
      "a football ": 2937,
      "a fluffy ": 2938,
      "##ery .": 2939,
      "##ror": 2940,
      "##lawn ": 2941,
      "##lawn .": 2942,
      "##male": 2943,
      "##the water ": 2944,
      "## and a": 2945,
      "##in water .": 2946,
      "##is sitting ": 2947,
      "##is holding ": 2948,
      "##ster": 2949,
      "##stand .": 2950,
      "##way": 2951,
      "##women are ": 2952,
      "##christ": 2953,
      "##ban ": 2954,
      "##on some ": 2955,
      "##rain": 2956,
      "##bod": 2957,
      "##ck of ": 2958,
      "##on a white ": 2959,
      "##on a snow": 2960,
      "##on a skateboard .": 2961,
      "##plane ": 2962,
      "##plaid ": 2963,
      "##up and ": 2964,
      "a man rides a ": 2965,
      "##seat ": 2966,
      "##white dog is ": 2967,
      "##white dogs are ": 2968,
      "##in the mountains .": 2969,
      "a boy with a ": 2970,
      "##river": 2971,
      "##right ": 2972,
      "##ligh": 2973,
      "##up to ": 2974,
      "##red ball .": 2975,
      "##with a man ": 2976,
      "##with a large ": 2977,
      "##ed by ": 2978,
      "##nose ": 2979,
      "##er .\"": 2980,
      "##ette ": 2981,
      "##half ": 2982,
      "##walking a ": 2983,
      "##walking .": 2984,
      "##gravel ": 2985,
      "##on the sidewalk .": 2986,
      "##on the beach": 2987,
      "a girl with ": 2988,
      "##black dogs are ": 2989,
      "##dog is jumping ": 2990,
      "##ing after a ": 2991,
      "##filled ": 2992,
      "##blue ball ": 2993,
      "##forwar": 2994,
      "##runner ": 2995,
      "##their": 2996,
      "##them ": 2997,
      "a group of girls ": 2998,
      "##other people ": 2999,
      "\"a baby ": 3000,
      "\"a big   ": 3001,
      "##past ": 3002,
      "##carni": 3003,
      "##playing soccer .": 3004,
      "##while wearing ": 3005,
      "##while sitting on a ": 3006,
      "##sh .": 3007,
      "##ch is ": 3008,
      "##standing in the ": 3009,
      "##water .\"": 3010,
      "##wearing a yellow ": 3011,
      "##lar ": 3012,
      "##outstret": 3013,
      "##fold": 3014,
      "##foam ": 3015,
      "a dog leaps ": 3016,
      "a dog catches a ": 3017,
      "##water slide .": 3018,
      "##overlooking ": 3019,
      "##partic": 3020,
      "##nearby a ": 3021,
      "##background .": 3022,
      "##backwar": 3023,
      "##leap": 3024,
      "##leads ": 3025,
      "##climb ": 3026,
      "a back": 3027,
      "##tire": 3028,
      "##tion .": 3029,
      "##japan": 3030,
      "##es .\"": 3031,
      "##track ": 3032,
      "##trail ": 3033,
      "##reaching ": 3034,
      "##down .": 3035,
      "##moto": 3036,
      "##moving ": 3037,
      "##by another ": 3038,
      "a girl in a blue ": 3039,
      "##through the water .": 3040,
      "a boy in a white ": 3041,
      "##some trees .": 3042,
      "##woodlan": 3043,
      "##stage ": 3044,
      "##stadiu": 3045,
      "##vest": 3046,
      "##through deep ": 3047,
      "##over water .": 3048,
      "##trees ": 3049,
      "##behind the ": 3050,
      "##jeep ": 3051,
      "##close": 3052,
      "##in the background ": 3053,
      "##kick ": 3054,
      "##slides ": 3055,
      "a group of people stand ": 3056,
      "##in its mouth": 3057,
      "##sprea": 3058,
      "##skiing ": 3059,
      "##skiing .": 3060,
      "##snowy hill .": 3061,
      "a man in red ": 3062,
      "##eats ": 3063,
      "##bark": 3064,
      "##barre": 3065,
      "##that has ": 3066,
      "##check": 3067,
      "##chest": 3068,
      "##while another dog ": 3069,
      "##covered with ": 3070,
      "## at sunset .": 3071,
      "##same ": 3072,
      "##yclists ": 3073,
      "## as the ": 3074,
      "## as they ": 3075,
      "a black and tan dog ": 3076,
      "a little girl in ": 3077,
      "a little girl is ": 3078,
      "##has his ": 3079,
      "##helmet .": 3080,
      "##crossing a ": 3081,
      "##table": 3082,
      "##flags .": 3083,
      "##stick in its mouth .": 3084,
      "##frisbee": 3085,
      "##into the ocean .": 3086,
      "##posing for the camera .": 3087,
      "##shirt and blue ": 3088,
      "a guy is ": 3089,
      "a black and white dog is running ": 3090,
      "##boy and a ": 3091,
      "##driving ": 3092,
      "a blond boy ": 3093,
      "##court": 3094,
      "##sits at a ": 3095,
      "##running across a ": 3096,
      "##in front of some ": 3097,
      "##brown and black ": 3098,
      "##cree": 3099,
      "##group of people ": 3100,
      "##biting a ": 3101,
      "##picture of a ": 3102,
      "##ction .": 3103,
      "##sheph": 3104,
      "##sheep ": 3105,
      "##prepar": 3106,
      "##object .": 3107,
      "##smoke ": 3108,
      "##in a grassy field ": 3109,
      "##poses for a ": 3110,
      "##edge of the ": 3111,
      "##boat .": 3112,
      "##gets ready to ": 3113,
      "##eyes ": 3114,
      "##fetching a ": 3115,
      "##blowing ": 3116,
      "##craw": 3117,
      "##toddl": 3118,
      "##in all ": 3119,
      "##enjoying ": 3120,
      "##obstacle .": 3121,
      "##friend ": 3122,
      "##store ": 3123,
      "##distance ": 3124,
      "##her arms ": 3125,
      "##crowd of people ": 3126,
      "a dark haired ": 3127,
      "a grey ": 3128,
      "##shoulder ": 3129,
      "##puddle .": 3130,
      "##tank top": 3131,
      "##dressed as ": 3132,
      "##floating ": 3133,
      "##microphone .": 3134,
      "##denim ": 3135,
      "##in shallow water .": 3136,
      "##book .": 3137,
      "##pose for a picture .": 3138,
      "##kneeling ": 3139,
      "##owner ": 3140,
      "##shadow ": 3141,
      "##bottom ": 3142,
      "##goggles ": 3143,
      "##bandanna ": 3144,
      "##indian ": 3145,
      "##thlet": 3146,
      "##that says ": 3147,
      "##restaurant .": 3148,
      "##frican american ": 3149,
      "##flight of ": 3150,
      "##equipment .": 3151,
      "many ": 3152,
      "##dead ": 3153,
      "##hula hoop": 3154,
      "##mirror": 3155,
      "##sooners ": 3156,
      "##tunnel .": 3157,
      "##partici": 3158,
      "##japanese ": 3159,
      "\"the ": 3160,
      "kids ": 3161,
      "##ot": 3162,
      "##using a ": 3163,
      "##ned ": 3164,
      "##nea": 3165,
      "##grow": 3166,
      "##ge and ": 3167,
      "## in a ": 3168,
      "##bro": 3169,
      "##bic": 3170,
      "##bunch of ": 3171,
      "##i ": 3172,
      "##is": 3173,
      "##tin": 3174,
      "##t an ": 3175,
      "##ac": 3176,
      "##age .": 3177,
      "##ally ": 3178,
      "##lm ": 3179,
      "##cup .": 3180,
      "##pir": 3181,
      "##pel": 3182,
      "##pump": 3183,
      "##prac": 3184,
      "##jea": 3185,
      "##van ": 3186,
      "## air ": 3187,
      "## area .": 3188,
      "##s of ": 3189,
      "a pa": 3190,
      "a long ": 3191,
      "##that": 3192,
      "##ers": 3193,
      "##erd ": 3194,
      "##hit a ": 3195,
      "##hikers ": 3196,
      "##do ": 3197,
      "##dock": 3198,
      "##ree": 3199,
      "##res to ": 3200,
      "##made ": 3201,
      "##cks .": 3202,
      "##in water ": 3203,
      "##in mo": 3204,
      "##in orange ": 3205,
      "a brid": 3206,
      "a band ": 3207,
      "##on and ": 3208,
      "##is on a ": 3209,
      "##is doing a ": 3210,
      "##is playing with a ": 3211,
      "##is standing on a ": 3212,
      "##is standing a": 3213,
      "##stump": 3214,
      "##ster .": 3215,
      "##unicyc": 3216,
      "##man with a ": 3217,
      "##dog on a ": 3218,
      "##in a city .": 3219,
      "##wash": 3220,
      "##to an ": 3221,
      "##wide ": 3222,
      "##women": 3223,
      "##with arms ": 3224,
      "##char": 3225,
      "##on one ": 3226,
      "##rain ": 3227,
      "##rated ": 3228,
      "##bove ": 3229,
      "##left ": 3230,
      "##on a yellow ": 3231,
      "##on a wooden ": 3232,
      "##on a park ": 3233,
      "##row ": 3234,
      "##up at a ": 3235,
      "a man wearing a ": 3236,
      "a man riding a ": 3237,
      "##below .": 3238,
      "##set ": 3239,
      "##self ": 3240,
      "##white dog are ": 3241,
      "##white bird ": 3242,
      "##player .": 3243,
      "##in the ocean ": 3244,
      "## arm .": 3245,
      "##ely ": 3246,
      "##pee": 3247,
      "##ribb": 3248,
      "##with white ": 3249,
      "##with one ": 3250,
      "##with glasses ": 3251,
      "##with no ": 3252,
      "##light .": 3253,
      "##living ": 3254,
      "##tain": 3255,
      "##with a frisbee ": 3256,
      "##enter": 3257,
      "##urban ": 3258,
      "##   and ": 3259,
      "##hal": 3260,
      "##dog and two ": 3261,
      "##ing across the ": 3262,
      "##woman wearing ": 3263,
      "##verti": 3264,
      "##lown ": 3265,
      "##round": 3266,
      "##s around ": 3267,
      "a group of kids ": 3268,
      "##rough ": 3269,
      "\"a brown dog ": 3270,
      "\"a man and a ": 3271,
      "\"a brown   ": 3272,
      "##board": 3273,
      "##playing on the ": 3274,
      "##brown dogs ": 3275,
      "two guys ": 3276,
      "##look at ": 3277,
      "##looks at the ": 3278,
      "##show ": 3279,
      "##standing in ": 3280,
      "##standing outside ": 3281,
      "##standing outside a ": 3282,
      "##jumping off a ": 3283,
      "## another dog ": 3284,
      "##boy in ": 3285,
      "##wearing a helmet ": 3286,
      "##little boys ": 3287,
      "a dog running ": 3288,
      "##ts of ": 3289,
      "##green grass ": 3290,
      "##skates ": 3291,
      "##water fountain .": 3292,
      "##climbing on a ": 3293,
      "##wearing sunglasses ": 3294,
      "##large   ": 3295,
      "##diving ": 3296,
      "##digging ": 3297,
      "##sun .": 3298,
      "##race": 3299,
      "##skateboards ": 3300,
      "##off .": 3301,
      "##tial": 3302,
      "##chain": 3303,
      "##jumps up ": 3304,
      "##jumps into a ": 3305,
      "##walking through a ": 3306,
      "##read": 3307,
      "##reaches ": 3308,
      "##tele": 3309,
      "##tricyc": 3310,
      "##orange": 3311,
      "##mo ": 3312,
      "##go-": 3313,
      "##festi": 3314,
      "##few ": 3315,
      "a girl in a yellow ": 3316,
      "a girl in a purple ": 3317,
      "a black dog carries a ": 3318,
      "##dressed up ": 3319,
      "##puts ": 3320,
      "##pulled ": 3321,
      "##publi": 3322,
      "##runs through a ": 3323,
      "##gun .": 3324,
      "##sticks ": 3325,
      "a cow": 3326,
      "a col": 3327,
      "##shirts and ": 3328,
      "##war ": 3329,
      "##rock wall .": 3330,
      "##young girl ": 3331,
      "##plays in the ": 3332,
      "##catches ": 3333,
      "##kicks ": 3334,
      "##ly dressed ": 3335,
      "##ly haired ": 3336,
      "##contro": 3337,
      "##gged ": 3338,
      "##uniform": 3339,
      "##uniforms .": 3340,
      "##tennis ra": 3341,
      "##into a lake .": 3342,
      "##into a swimming pool .": 3343,
      "a black and white dog jumping ": 3344,
      "##hugg": 3345,
      "##him .\"": 3346,
      "##while another girl ": 3347,
      "##swimming pool ": 3348,
      "##swimming trunks ": 3349,
      "##stuff": 3350,
      "a little girl in a ": 3351,
      "##walks on a ": 3352,
      "##walks down a ": 3353,
      "##lake": 3354,
      "##in a red shirt ": 3355,
      "##walk down a ": 3356,
      "##grassy hill .": 3357,
      "three dogs are ": 3358,
      "three children are ": 3359,
      "##performing ": 3360,
      "##back flip ": 3361,
      "##get a ": 3362,
      "##red and black ": 3363,
      "##way from a ": 3364,
      "##dances ": 3365,
      "##dark haired ": 3366,
      "##white and black ": 3367,
      "##try": 3368,
      "##day ": 3369,
      "##for the camera ": 3370,
      "## attached ": 3371,
      "##rolls ": 3372,
      "##black dog .": 3373,
      "##running along the ": 3374,
      "##flowers ": 3375,
      "##railing .": 3376,
      "##talks ": 3377,
      "##talking on a ": 3378,
      "##basketball .": 3379,
      "##in red is ": 3380,
      "##costumes ": 3381,
      "##chases another ": 3382,
      "##throws ": 3383,
      "##martial": 3384,
      "##sleep ": 3385,
      "##es an ": 3386,
      "##walking along a ": 3387,
      "##walking along the ": 3388,
      "##in a black shirt ": 3389,
      "##watch .\"": 3390,
      "##capped ": 3391,
      "##grey dog ": 3392,
      "##stairs ": 3393,
      "##pulling ": 3394,
      "##stream ": 3395,
      "##leaping over a ": 3396,
      "##collar is ": 3397,
      "##giant ": 3398,
      "##gear is ": 3399,
      "##hockey game .": 3400,
      "##climbing up a ": 3401,
      "a small dog ": 3402,
      "##falls ": 3403,
      "##rail ": 3404,
      "##paddle ": 3405,
      "##bubbles .": 3406,
      "##bank ": 3407,
      "##scarf": 3408,
      "##room with ": 3409,
      "##ing another boy ": 3410,
      "a boy and a girl ": 3411,
      "a boy and a girl are ": 3412,
      "##blows ": 3413,
      "##in the middle of the ": 3414,
      "##enjoys a ": 3415,
      "##blonde girl ": 3416,
      "##beard ": 3417,
      "##birds ": 3418,
      "a woman and ": 3419,
      "##bottle .": 3420,
      "##peace ": 3421,
      "##country ": 3422,
      "##country": 3423,
      "##with its mouth ope": 3424,
      "##sleeping ": 3425,
      "##cellphone ": 3426,
      "##erman sheph": 3427,
      "##standing around ": 3428,
      "two brown dogs ": 3429,
      "##pictures .": 3430,
      "a greyhound ": 3431,
      "##cowboy ": 3432,
      "##getting ready to ": 3433,
      "##seated ": 3434,
      "a boy on a skateboard ": 3435,
      "##tank top ": 3436,
      "##pitch": 3437,
      "##look on .": 3438,
      "##dressed as a ": 3439,
      "##straw ": 3440,
      "##looking at the camera .": 3441,
      "##fighting over a ": 3442,
      "##gloves ": 3443,
      "##police": 3444,
      "a beautiful ": 3445,
      "##skinned ": 3446,
      "##formal ": 3447,
      "##outfit": 3448,
      "##gather": 3449,
      "##snowboarding .": 3450,
      "##cross-": 3451,
      "##blanket ": 3452,
      "boys ": 3453,
      "##walking down the street .": 3454,
      "##is airborne ": 3455,
      "##roller coa": 3456,
      "##gainst the ": 3457,
      "##hair and ": 3458,
      "##helping a ": 3459,
      "two asian ": 3460,
      "##teenage ": 3461,
      "##wooded area .": 3462,
      "##piece of ": 3463,
      "##spectators .": 3464,
      "##tattoo": 3465,
      "##through an obstacle ": 3466,
      "##mohawk ": 3467,
      "##onlookers ": 3468,
      "##neckla": 3469,
      "##dress and ": 3470,
      "##racetrack .": 3471,
      "##musement ": 3472,
      "##cheerleader ": 3473,
      "##multi": 3474,
      "##rapids .": 3475,
      "##santa ": 3476,
      "##stuffed animal": 3477,
      "##school ": 3478,
      "##coffe": 3479,
      "##christmas ": 3480,
      "##overlooking the ": 3481,
      "a backpack": 3482,
      "##jean ": 3483,
      "##martial ar": 3484,
      "se": 3485,
      "##y are ": 3486,
      "##nu": 3487,
      "##ns ": 3488,
      "##ne .": 3489,
      "##net ": 3490,
      "##nati": 3491,
      "##  are ": 3492,
      "##br": 3493,
      "##be .": 3494,
      "##bur": 3495,
      "##ean": 3496,
      "##ever": 3497,
      "##em ": 3498,
      "##emb": 3499,
      "##he": 3500,
      "##tte ": 3501,
      "##a .": 3502,
      "##all": 3503,
      "##ry-": 3504,
      "##wire ": 3505,
      "##lp": 3506,
      "##ling .": 3507,
      "##lmo": 3508,
      "##dump": 3509,
      "##cir": 3510,
      "##cyclist ": 3511,
      "##kin": 3512,
      "##ks .": 3513,
      "##pour": 3514,
      "##pped ": 3515,
      "##fl": 3516,
      "##fen": 3517,
      "##fea": 3518,
      "##ft .": 3519,
      "##vo": 3520,
      "##ve .": 3521,
      "##ves a ": 3522,
      "##val": 3523,
      "##3 ": 3524,
      "##zen ": 3525,
      "##5 ": 3526,
      "## area": 3527,
      "## across a ": 3528,
      "## around a ": 3529,
      "##e of ": 3530,
      "a surfer ": 3531,
      "a soccer player ": 3532,
      "a naked ": 3533,
      "a hockey player ": 3534,
      "a homeless ": 3535,
      "##thrown": 3536,
      "##er and a ": 3537,
      "##doing the ": 3538,
      "##red .": 3539,
      "##refle": 3540,
      "##males ": 3541,
      "##the other ": 3542,
      "##in yellow ": 3543,
      "##in mid": 3544,
      "a bride ": 3545,
      "a blur": 3546,
      "##are ": 3547,
      "##ard ": 3548,
      "##on another ": 3549,
      "##on an a": 3550,
      "##sty": 3551,
      "##stro": 3552,
      "##stic": 3553,
      "##irplane ": 3554,
      "##ings .": 3555,
      "##man wearing a ": 3556,
      "##man in a red ": 3557,
      "##dog on the ": 3558,
      "##in a purple ": 3559,
      "##in a pool ": 3560,
      "##in a yard ": 3561,
      "##in a parade .": 3562,
      "##wag": 3563,
      "##which is ": 3564,
      "##with an a": 3565,
      "##chur": 3566,
      "##chsh": 3567,
      "##bask": 3568,
      "##baby": 3569,
      "##bags ": 3570,
      "##on skis ": 3571,
      "##lo ": 3572,
      "##lot of ": 3573,
      "##bow ": 3574,
      "##leg": 3575,
      "##leg ": 3576,
      "##on a blue ": 3577,
      "##on a grassy ": 3578,
      "##on a lake .": 3579,
      "##on a snowboard .": 3580,
      "##on a surfboard .": 3581,
      "##on a leash ": 3582,
      "##on a sunny day .": 3583,
      "##of two ": 3584,
      "##rowing a ": 3585,
      "a man wearing ": 3586,
      "a man does a ": 3587,
      "a man climbing a ": 3588,
      "##before": 3589,
      "##sen": 3590,
      "##sed .": 3591,
      "##set .": 3592,
      "##secon": 3593,
      "##ear ": 3594,
      "##out a ": 3595,
      "##in the street .": 3596,
      "##in the sand ": 3597,
      "##in the city .": 3598,
      "##in the distance .": 3599,
      "##pen": 3600,
      "##cow ": 3601,
      "##corated ": 3602,
      "a boy wearing a red ": 3603,
      "a boy in an orange ": 3604,
      "a boy in black ": 3605,
      "##with people ": 3606,
      "##with water ": 3607,
      "##with something ": 3608,
      "##with several ": 3609,
      "##with mountains ": 3610,
      "##with a small ": 3611,
      "##jumps a ": 3612,
      "##to catch ": 3613,
      "##enclo": 3614,
      "##standing and ": 3615,
      "##nose": 3616,
      "##nose .": 3617,
      "##lka ": 3618,
      "##frozen ": 3619,
      "##happ": 3620,
      "##having a ": 3621,
      "##grab": 3622,
      "##on the sand .": 3623,
      "##pow": 3624,
      "##pood": 3625,
      "##polka ": 3626,
      "## and a black ": 3627,
      "## and a small ": 3628,
      "a girl wearing ": 3629,
      "a girl dressed in ": 3630,
      "##black is ": 3631,
      "##ing across a ": 3632,
      "##ride": 3633,
      "##rider is ": 3634,
      "##eat ": 3635,
      "##woman 's ": 3636,
      "##blue sky .": 3637,
      "a group of children are ": 3638,
      "##other dogs ": 3639,
      "\"a child ": 3640,
      "\"a little girl ": 3641,
      "##grass and ": 3642,
      "##playing the ": 3643,
      "##playing in the snow .": 3644,
      "##playing tu": 3645,
      "##while three ": 3646,
      "##while someone ": 3647,
      "##people stand ": 3648,
      "two men are ": 3649,
      "two black dogs ": 3650,
      "two black dogs are ": 3651,
      "##fast ": 3652,
      "##fair .": 3653,
      "##family ": 3654,
      "##running down the ": 3655,
      "##running on the grass .": 3656,
      "##shot ": 3657,
      "##shot .": 3658,
      "##shovel": 3659,
      "##standing in front of ": 3660,
      "##jumping from a ": 3661,
      "##boy is ": 3662,
      "##neon ": 3663,
      "##s are standing ": 3664,
      "##bush": 3665,
      "##bucket .": 3666,
      "##little girls ": 3667,
      "a man in a brown ": 3668,
      "a dog in a ": 3669,
      "a dog runs a": 3670,
      "##bikers ": 3671,
      "##yellow ball ": 3672,
      "##six ": 3673,
      "##party ": 3674,
      "##parked ": 3675,
      "##nearby ": 3676,
      "##backyard .": 3677,
      "##climb a ": 3678,
      "##in front of a brick ": 3679,
      "##large red ": 3680,
      "##dives ": 3681,
      "##merry-": 3682,
      "a barefoot ": 3683,
      "##suits ": 3684,
      "##suspe": 3685,
      "##racing on a ": 3686,
      "##racing around a ": 3687,
      "##surface .": 3688,
      "##chase ": 3689,
      "##side of the ": 3690,
      "##children .": 3691,
      "a brown dog jumps ": 3692,
      "a cur": 3693,
      "a clown ": 3694,
      "##walking on ": 3695,
      "##next to another ": 3696,
      "##mobi": 3697,
      "a man a": 3698,
      "a girl in a green ": 3699,
      "a black dog runs ": 3700,
      "##dressed in a ": 3701,
      "##putt": 3702,
      "##runs down a ": 3703,
      "##to the camera .": 3704,
      "##guy": 3705,
      "##turn .": 3706,
      "##shorts and a ": 3707,
      "a boy in a black ": 3708,
      "a coup": 3709,
      "##ment": 3710,
      "##ments .": 3711,
      "##woods ": 3712,
      "##shirt and black ": 3713,
      "a brown and white ": 3714,
      "##helps ": 3715,
      "##through a field .": 3716,
      "##young boy ": 3717,
      "##behind him ": 3718,
      "##frican ": 3719,
      "##from another ": 3720,
      "##from an ": 3721,
      "##dirt track .": 3722,
      "##defen": 3723,
      "##decorated ": 3724,
      "##kisse": 3725,
      "##sliding ": 3726,
      "##d as ": 3727,
      "##bending ": 3728,
      "##from his ": 3729,
      "##from one ": 3730,
      "##from behind .": 3731,
      "##next to a girl ": 3732,
      "##soccer game .": 3733,
      "##conver": 3734,
      "##on his bike ": 3735,
      "##ocean": 3736,
      "##uniform .": 3737,
      "##spid": 3738,
      "##pige": 3739,
      "##pipe .": 3740,
      "a man in yellow ": 3741,
      "##eating .": 3742,
      "##hugging ": 3743,
      "##looking down": 3744,
      "##yclist": 3745,
      "##off of ": 3746,
      "##terri": 3747,
      "## as she ": 3748,
      "##woman and ": 3749,
      "a black and tan ": 3750,
      "##quet .": 3751,
      "##three people ": 3752,
      "a baby girl ": 3753,
      "##is at the ": 3754,
      "##in the air while ": 3755,
      "##flips ": 3756,
      "##stick in its mouth ": 3757,
      "##into the water ": 3758,
      "three boys ": 3759,
      "##together": 3760,
      "##bicycles ": 3761,
      "##red and blue ": 3762,
      "##dance ": 3763,
      "##dancing .": 3764,
      "a black and white dog is playing with a ": 3765,
      "##line": 3766,
      "##pants and ": 3767,
      "##steep ": 3768,
      "##white and a ": 3769,
      "##teal ": 3770,
      "##team .": 3771,
      "##uniform is ": 3772,
      "##navy ": 3773,
      "##smile ": 3774,
      "##visi": 3775,
      "##viol": 3776,
      "##under an ": 3777,
      "##ball and ": 3778,
      "##carries ": 3779,
      "##sit and ": 3780,
      "##jockey ": 3781,
      "##jump in a ": 3782,
      "a big tan dog ": 3783,
      "##talking .": 3784,
      "##near some ": 3785,
      "##wedd": 3786,
      "##strugg": 3787,
      "##headphon": 3788,
      "##rides his ": 3789,
      "##surrounding ": 3790,
      "##costume": 3791,
      "##cann": 3792,
      "##baseball .": 3793,
      "##fish ": 3794,
      "##chased ": 3795,
      "##creat": 3796,
      "##kids are ": 3797,
      "##in a white shirt ": 3798,
      "a lone surfer ": 3799,
      "##women in ": 3800,
      "##jumping over a hurdle .": 3801,
      "##sweater ": 3802,
      "a large woman ": 3803,
      "##near the beach .": 3804,
      "##walking across a ": 3805,
      "an adul": 3806,
      "##staring ": 3807,
      "##paint": 3808,
      "a basketball ": 3809,
      "##militar": 3810,
      "##fountain": 3811,
      "##laughs .": 3812,
      "##laughing .": 3813,
      "##sheer ": 3814,
      "##shows ": 3815,
      "##shown ": 3816,
      "a female tennis player ": 3817,
      "##sand dun": 3818,
      "##stream": 3819,
      "##sits on a rock ": 3820,
      "##black and brown dog ": 3821,
      "##window of a ": 3822,
      "children": 3823,
      "##monkey ": 3824,
      "##backpack .": 3825,
      "##basketball court .": 3826,
      "##pond ": 3827,
      "##puppi": 3828,
      "##pushes ": 3829,
      "##behind him .\"": 3830,
      "##surrounded by trees .": 3831,
      "##points ": 3832,
      "##pointing ": 3833,
      "##black and white dog are ": 3834,
      "##raising ": 3835,
      "a hiker is ": 3836,
      "##leaning against a ": 3837,
      "##bubble ": 3838,
      "##bann": 3839,
      "##range .": 3840,
      "##street at night .": 3841,
      "a bearded ": 3842,
      "a girl and a ": 3843,
      "##light blue ": 3844,
      "##other and ": 3845,
      "two girls in ": 3846,
      "##skateboarding .": 3847,
      "a few people ": 3848,
      "##view .": 3849,
      "##tackle": 3850,
      "##tackled ": 3851,
      "a boy in a red jacket ": 3852,
      "##takes a picture ": 3853,
      "##smiles at the ": 3854,
      "## approa": 3855,
      "##balcon": 3856,
      "##bottle ": 3857,
      "##plants .": 3858,
      "##sticking ": 3859,
      "##ledge .": 3860,
      "##cow .": 3861,
      "##busy street .": 3862,
      "##quick": 3863,
      "##jersey is ": 3864,
      "##splashing water ": 3865,
      "##sandy beach .": 3866,
      "##event .": 3867,
      "a bicycler ": 3868,
      "##graffiti ": 3869,
      "##tire swing .": 3870,
      "##one another .": 3871,
      "##barrier ": 3872,
      "##cigarette ": 3873,
      "##leash .": 3874,
      "##upside down .": 3875,
      "a beagle ": 3876,
      "##display": 3877,
      "a cyclist is ": 3878,
      "##blanket .": 3879,
      "##match .": 3880,
      "##try to ": 3881,
      "##talking to a ": 3882,
      "##boots ": 3883,
      "##carpet .": 3884,
      "##jeans and a ": 3885,
      "##doing a skateboard trick ": 3886,
      "a boy and girl ": 3887,
      "##protective ": 3888,
      "##kitchen ": 3889,
      "##kitchen .": 3890,
      "##is attempting to ": 3891,
      "##platform .": 3892,
      "##indoor ": 3893,
      "##grassy area .": 3894,
      "a dirt bike rider ": 3895,
      "##shooting ": 3896,
      "##traffic": 3897,
      "##prepares to ": 3898,
      "##toward the camera .": 3899,
      "##hoodie ": 3900,
      "##vehicle ": 3901,
      "##swan ": 3902,
      "##retrie": 3903,
      "##station .": 3904,
      "##caught ": 3905,
      "##hind legs ": 3906,
      "##staircase .": 3907,
      "##parachute ": 3908,
      "##smoking a cigarette .": 3909,
      "## appears to be ": 3910,
      "##grocer": 3911,
      "##petting a ": 3912,
      "##crashing ": 3913,
      "## attempts to ": 3914,
      "##video ": 3915,
      "##writ": 3916,
      "##first ": 3917,
      "##jungle ": 3918,
      "##filled with ": 3919,
      "##their arms ": 3920,
      "##motocross ": 3921,
      "##woodland ": 3922,
      "##thletic ": 3923,
      "##that says \"\" ": 3924,
      "many people ": 3925,
      "##practic": 3926,
      "##hit a tennis ball ": 3927,
      "##cross-country ": 3928,
      "##musement park ": 3929,
      "a backpacker ": 3930,
      "several ": 3931,
      "##every": 3932,
      "##second ": 3933,
      "##polka do": 3934,
      "##merry-go-": 3935,
      "##suspen": 3936,
      "\"one ": 3937,
      "fi": 3938,
      "##you": 3939,
      "##using ": 3940,
      "##ng": 3941,
      "##nit ": 3942,
      "##gun": 3943,
      "##group ": 3944,
      "##gil": 3945,
      "##gga": 3946,
      "##groom ": 3947,
      "##gure ": 3948,
      "##ble ": 3949,
      "##blea": 3950,
      "##bicyclist ": 3951,
      "##son": 3952,
      "##spa": 3953,
      "##sna": 3954,
      "##ssing a ": 3955,
      "##slip": 3956,
      "##igh": 3957,
      "##ise ": 3958,
      "##ion .": 3959,
      "##ial ": 3960,
      "##tw": 3961,
      "##twi": 3962,
      "##tle": 3963,
      "##tly ": 3964,
      "##ali": 3965,
      "##rying ": 3966,
      "##what ": 3967,
      "##l .": 3968,
      "##ls .": 3969,
      "##dge ": 3970,
      "##mes .": 3971,
      "##ker": 3972,
      "##keboar": 3973,
      "##knit ": 3974,
      "##pun": 3975,
      "##free ": 3976,
      "##fru": 3977,
      "##fly ": 3978,
      "##jet ": 3979,
      "##-and": 3980,
      "##vil": 3981,
      "##val ": 3982,
      "## across the ": 3983,
      "## after a ": 3984,
      "##ine .": 3985,
      "##s is ": 3986,
      "##s with ": 3987,
      "a flo": 3988,
      "a dog and a ": 3989,
      "a tan ": 3990,
      "a fish": 3991,
      "a mountain ": 3992,
      "a car is ": 3993,
      "a downhill ": 3994,
      "a dirty ": 3995,
      "##g of ": 3996,
      "##thing ": 3997,
      "##thou": 3998,
      "##thumb": 3999,
      "##ing their ": 4000,
      "##ere ": 4001,
      "##ering ": 4002,
      "##erat": 4003,
      "##er at a ": 4004,
      "##rou": 4005,
      "##rode": 4006,
      "##hiding ": 4007,
      "##lay ": 4008,
      "##dor": 4009,
      "##ren": 4010,
      "##rece": 4011,
      "##ma ": 4012,
      "##the number ": 4013,
      "##in some ": 4014,
      "##onal ": 4015,
      "##is looking ": 4016,
      "##is sitting in a ": 4017,
      "##stroller ": 4018,
      "##unk ": 4019,
      "##ing and a ": 4020,
      "##man standing ": 4021,
      "##dog jumps ": 4022,
      "##dog run ": 4023,
      "##in a small ": 4024,
      "##in a body of water .": 4025,
      "##in a busy ": 4026,
      "##wait ": 4027,
      "##wakeboar": 4028,
      "## and is ": 4029,
      "##which": 4030,
      "##base ": 4031,
      "##base .": 4032,
      "##on to a ": 4033,
      "##on rollerblad": 4034,
      "##loun": 4035,
      "##locat": 4036,
      "##raft": 4037,
      "##bou": 4038,
      "##both": 4039,
      "##ley .": 4040,
      "##leg .": 4041,
      "##on a green ": 4042,
      "##on a track .": 4043,
      "##on a city street .": 4044,
      "##on a trampoline .": 4045,
      "##plac": 4046,
      "##plate ": 4047,
      "##hot ": 4048,
      "##horiz": 4049,
      "##up at the ": 4050,
      "##te in a ": 4051,
      "##see": 4052,
      "##ear .": 4053,
      "##out the ": 4054,
      "##playing": 4055,
      "##playing at a ": 4056,
      "##players are ": 4057,
      "##playground": 4058,
      "##in the water": 4059,
      "##in the park .": 4060,
      "##in the fore": 4061,
      "##in the rain .": 4062,
      "## arms .": 4063,
      "##cook": 4064,
      "a boy wearing a ": 4065,
      "##ried ": 4066,
      "##right": 4067,
      "##with blue ": 4068,
      "##with long ": 4069,
      "##with her arms ": 4070,
      "##with their arms ": 4071,
      "##like ": 4072,
      "##up his ": 4073,
      "##up some ": 4074,
      "##runette ": 4075,
      "##red ball ": 4076,
      "##red toy ": 4077,
      "##with a brown ": 4078,
      "##with a crowd ": 4079,
      "##to be ": 4080,
      "##to get a ": 4081,
      "##ened ": 4082,
      "##en on a ": 4083,
      "##ure .": 4084,
      "##es of ": 4085,
      "##oppon": 4086,
      "##of a man ": 4087,
      "##  while ": 4088,
      "##  two ": 4089,
      "##  holding a ": 4090,
      "##chick": 4091,
      "##snowsuit ": 4092,
      "##snowcapped ": 4093,
      "##ball with a ": 4094,
      "##on the water .": 4095,
      "##on the street ": 4096,
      "##on the swing .": 4097,
      "##on the shore ": 4098,
      "a girl with a ": 4099,
      "a girl wearing a ": 4100,
      "a girl in black ": 4101,
      "##black dog is ": 4102,
      "##rides a": 4103,
      "##figure ": 4104,
      "##woman   ": 4105,
      "##blue slide .": 4106,
      "##s around a ": 4107,
      "##running and ": 4108,
      "##they are ": 4109,
      "##so ": 4110,
      "##soa": 4111,
      "a group of men are ": 4112,
      "a group of 5 ": 4113,
      "##other children ": 4114,
      "##camel": 4115,
      "\"a guy ": 4116,
      "\"a couple ": 4117,
      "##pass ": 4118,
      "##passing ": 4119,
      "##cars ": 4120,
      "##cart .": 4121,
      "##while being ": 4122,
      "##while he ": 4123,
      "##shar": 4124,
      "##shel": 4125,
      "a brown dog": 4126,
      "two people ": 4127,
      "two black and white ": 4128,
      "two blonde ": 4129,
      "two brown and white ": 4130,
      "two ladies ": 4131,
      "##fair": 4132,
      "##fall ": 4133,
      "##fabri": 4134,
      "##running in the grass .": 4135,
      "##front .": 4136,
      "##shop ": 4137,
      "##shoes .": 4138,
      "##jumping on the ": 4139,
      "##jumping into the air ": 4140,
      "##in front of an a": 4141,
      "## another boy ": 4142,
      "##nel ": 4143,
      "##dress": 4144,
      "##ilt ": 4145,
      "##larger ": 4146,
      "##bus .": 4147,
      "##bull": 4148,
      "##bull .": 4149,
      "##buried ": 4150,
      "##little dog ": 4151,
      "a man in a green ": 4152,
      "a man in a pink ": 4153,
      "a man in a grey ": 4154,
      "a dog plays ": 4155,
      "a dog catching a ": 4156,
      "a child plays ": 4157,
      "##y .\"": 4158,
      "## an older ": 4159,
      "##water   ": 4160,
      "##yellow ball .": 4161,
      "##simi": 4162,
      "##part ": 4163,
      "##leaves ": 4164,
      "##climber ": 4165,
      "##wearing white ": 4166,
      "##wearing blue ": 4167,
      "##in front of a building .": 4168,
      "##disc": 4169,
      "##dish ": 4170,
      "##person .": 4171,
      "##person is ": 4172,
      "##gall": 4173,
      "##surface ": 4174,
      "##girls .": 4175,
      "##down a dirt ": 4176,
      "##down a hill ": 4177,
      "##offic": 4178,
      "##tif": 4179,
      "##tist ": 4180,
      "##rubb": 4181,
      "##chases ": 4182,
      "##side by ": 4183,
      "##jumps off a ": 4184,
      "a little blonde girl ": 4185,
      "a cri": 4186,
      "a city ": 4187,
      "##reads ": 4188,
      "##reading ": 4189,
      "##stands in a ": 4190,
      "##stands on the ": 4191,
      "##next to the ": 4192,
      "##moves ": 4193,
      "##goal .": 4194,
      "##dogs run ": 4195,
      "a girl in a black ": 4196,
      "##men in ": 4197,
      "##to the ground ": 4198,
      "##face and ": 4199,
      "##headed ": 4200,
      "##heavy ": 4201,
      "##through the woods .": 4202,
      "##guid": 4203,
      "##turn ": 4204,
      "a boy in a yellow ": 4205,
      "##out to ": 4206,
      "a man is riding a ": 4207,
      "##young": 4208,
      "##surfing on a ": 4209,
      "the dogs are ": 4210,
      "a woman wearing a ": 4211,
      "a woman in a black ": 4212,
      "##rock face ": 4213,
      "##rock forma": 4214,
      "##through water ": 4215,
      "##young boys ": 4216,
      "##behind it ": 4217,
      "##shirt is standing in a ": 4218,
      "##water at a ": 4219,
      "##waterfall": 4220,
      "##clothe": 4221,
      "a brown dog is jumping ": 4222,
      "a brown dog is running a": 4223,
      "##dev": 4224,
      "##kiss ": 4225,
      "##kiss": 4226,
      "##jacket   ": 4227,
      "##sliding down a ": 4228,
      "##black .": 4229,
      "##d as a ": 4230,
      "##midst ": 4231,
      "##bends ": 4232,
      "## an asian ": 4233,
      "##play in a ": 4234,
      "##covering his ": 4235,
      "##concer": 4236,
      "##contain": 4237,
      "a group of people in ": 4238,
      "##skateboard trick ": 4239,
      "##tor ": 4240,
      "##on his head ": 4241,
      "##on his skateboard .": 4242,
      "##into a pool .": 4243,
      "##into a microphone .": 4244,
      "##carry": 4245,
      "##duck ": 4246,
      "##pick": 4247,
      "##looks on": 4248,
      "##sitting on a rock ": 4249,
      "##sitting on a park ": 4250,
      "##sitting on a bench .": 4251,
      "a black and white dog runs ": 4252,
      "##from a water ": 4253,
      "##memb": 4254,
      "a man and a dog ": 4255,
      "a man and a boy ": 4256,
      "a man in sunglasses ": 4257,
      "##tutu": 4258,
      "##tube .": 4259,
      "##human ": 4260,
      "## at the camera .": 4261,
      "##bars .": 4262,
      "##chee": 4263,
      "##ched .": 4264,
      "##door .": 4265,
      "##studi": 4266,
      "##studen": 4267,
      "## at du": 4268,
      "##it .\"": 4269,
      "##safet": 4270,
      "##doing a trick ": 4271,
      "a boy is jumping ": 4272,
      "a boy is riding a ": 4273,
      "##smiling at the camera .": 4274,
      "## as it ": 4275,
      "##brightly ": 4276,
      "##haired woman ": 4277,
      "##flag": 4278,
      "##flags ": 4279,
      "a dog is running ": 4280,
      "##into the water": 4281,
      "three children ": 4282,
      "three people are ": 4283,
      "##obser": 4284,
      "##hat and a ": 4285,
      "##waving ": 4286,
      "##toy in its mouth .": 4287,
      "##together and ": 4288,
      "##performs ": 4289,
      "##motorbike ": 4290,
      "##e and groom ": 4291,
      "##dog and a small ": 4292,
      "##dancing on a ": 4293,
      "##high .": 4294,
      "##big brown dog ": 4295,
      "a black and white dog is jumping ": 4296,
      "##clothing .": 4297,
      "##day": 4298,
      "##splashing in a ": 4299,
      "##make": 4300,
      "##makes ": 4301,
      "##for the ball .": 4302,
      "##standing on a rock ": 4303,
      "##midair ": 4304,
      "##drive": 4305,
      "##drives ": 4306,
      "##undernea": 4307,
      "## above a ": 4308,
      "a blond woman ": 4309,
      "a blond child ": 4310,
      "##court ": 4311,
      "##drink .": 4312,
      "##jump on a ": 4313,
      "a blonde girl ": 4314,
      "a blonde boy ": 4315,
      "a big black dog ": 4316,
      "##helmet is riding a ": 4317,
      "##does a trick ": 4318,
      "##does a trick on a ": 4319,
      "##sit on ": 4320,
      "##race car .": 4321,
      "##rocky beach .": 4322,
      "four children ": 4323,
      "##rides the ": 4324,
      "##colle": 4325,
      "##who are ": 4326,
      "##to catch a ball .": 4327,
      "##for his ": 4328,
      "a lone man ": 4329,
      "a lone snowboarder ": 4330,
      "##throw a ": 4331,
      "##throws a ": 4332,
      "##women standing ": 4333,
      "##whilst a ": 4334,
      "##holds his ": 4335,
      "##sweater is ": 4336,
      "##football players ": 4337,
      "##jacket and a ": 4338,
      "##bench with a ": 4339,
      "a close-up ": 4340,
      "##bites a ": 4341,
      "##biting the ": 4342,
      "##image ": 4343,
      "##walking along ": 4344,
      "##walking around ": 4345,
      "##walking away ": 4346,
      "\"a boy in ": 4347,
      "##coat is ": 4348,
      "##runs along the ": 4349,
      "##tree stump": 4350,
      "##cap and ": 4351,
      "##work": 4352,
      "##kayak .": 4353,
      "##presen": 4354,
      "##parasail": 4355,
      "a brown and white dog is running ": 4356,
      "##window ": 4357,
      "##collar .": 4358,
      "##each other in a ": 4359,
      "##gear .": 4360,
      "##in a green shirt ": 4361,
      "##wearing a blue shirt ": 4362,
      "##team of ": 4363,
      "##his arm .": 4364,
      "##pushing a ": 4365,
      "##bright pink ": 4366,
      "##bright orange ": 4367,
      "a group of men play ": 4368,
      "##photo .": 4369,
      "##pron ": 4370,
      "##comple": 4371,
      "##huge wave ": 4372,
      "##stone wall .": 4373,
      "##waiting to ": 4374,
      "##boats ": 4375,
      "##swings a ": 4376,
      "a girl in a pink dress ": 4377,
      "##through the air": 4378,
      "##shallow water .": 4379,
      "##hanging out .": 4380,
      "##hanging upside down ": 4381,
      "##scarf .": 4382,
      "##eye": 4383,
      "##fetch ": 4384,
      "##with her hair ": 4385,
      "##chasing a ball ": 4386,
      "##wheelie ": 4387,
      "##kite ": 4388,
      "##inner ": 4389,
      "##in the air and ": 4390,
      "##knee ": 4391,
      "##enjoying a ": 4392,
      "a bald man is ": 4393,
      "##silhou": 4394,
      "##blue and red ": 4395,
      "##yellow and ": 4396,
      "a boy in a red shirt ": 4397,
      "##smiles and ": 4398,
      "##smiles as ": 4399,
      "##bird": 4400,
      "##stunt .": 4401,
      "a black dog and a brown dog ": 4402,
      "##flies through the air ": 4403,
      "##sleep": 4404,
      "##cellphon": 4405,
      "##with an open ": 4406,
      "\"a girl in a ": 4407,
      "##chairs .": 4408,
      "##smaller dog ": 4409,
      "##crowd of people .": 4410,
      "##paper .": 4411,
      "##swings on a ": 4412,
      "##shoulder .": 4413,
      "\"a group of children ": 4414,
      "##spray": 4415,
      "##spray ": 4416,
      "##box .": 4417,
      "##boxer ": 4418,
      "a man on a bicycle ": 4419,
      "a man on a motorcycle ": 4420,
      "##pink and ": 4421,
      "##hangs from a ": 4422,
      "##sniffing a ": 4423,
      "##graffiti .": 4424,
      "##spinn": 4425,
      "the three children are ": 4426,
      "##barrier .": 4427,
      "##life jacket ": 4428,
      "##running on grass .": 4429,
      "##microphone ": 4430,
      "##on its back ": 4431,
      "##skinned man ": 4432,
      "##outfits ": 4433,
      "##display ": 4434,
      "##gathered ": 4435,
      "##swim trunks ": 4436,
      "##buildings .": 4437,
      "##chewing on a ": 4438,
      "##corner ": 4439,
      "##tongue out ": 4440,
      "##break ": 4441,
      "a white dog is ": 4442,
      "##matching ": 4443,
      "##playground equipment .": 4444,
      "##walks along a ": 4445,
      "##helmet and ": 4446,
      "##is airborne .": 4447,
      "##lined up ": 4448,
      "##grinding a ": 4449,
      "##hitting a ": 4450,
      "##carpet ": 4451,
      "##out of fra": 4452,
      "##taking pictures .": 4453,
      "##under the ": 4454,
      "##speaking ": 4455,
      "##bandanna": 4456,
      "##is attempting a ": 4457,
      "##finger ": 4458,
      "##of another man ": 4459,
      "##chasing another ": 4460,
      "a boy in a green shirt is ": 4461,
      "##music ": 4462,
      "##musici": 4463,
      "##grassy area ": 4464,
      "## at an outdoor ": 4465,
      "##photo of a ": 4466,
      "a girl and boy ": 4467,
      "##tattoo ": 4468,
      "##lips .": 4469,
      "##icial ": 4470,
      "##traffic ": 4471,
      "##dark-": 4472,
      "##dribbles ": 4473,
      "##balances ": 4474,
      "##soft": 4475,
      "##cricket ": 4476,
      "##skate park .": 4477,
      "##paved road .": 4478,
      "##greyhound dogs ": 4479,
      "##shirt and white shorts ": 4480,
      "##desert ": 4481,
      "##snowboarding down a ": 4482,
      "##teamma": 4483,
      "a group of asian ": 4484,
      "##gymnastic ": 4485,
      "##sine": 4486,
      "##karate ": 4487,
      "##dusty ": 4488,
      "##jogger ": 4489,
      "##ice cream ": 4490,
      "##kicks a soccer ball ": 4491,
      "##electri": 4492,
      "##garden ": 4493,
      "##sprinkler .": 4494,
      "##parking lot .": 4495,
      "##tv ": 4496,
      "a race car ": 4497,
      "##on a snow-covered ": 4498,
      "##lights ": 4499,
      "##stadium .": 4500,
      "##barren ": 4501,
      "##checkered ": 4502,
      "##enjoying the ": 4503,
      "\"the two ": 4504,
      "##bicyclists ": 4505,
      "a long haired ": 4506,
      "a bride and groom ": 4507,
      "a cowboy ": 4508,
      "##control ": 4509,
      "##erman shepherd ": 4510,
      "##lmost ": 4511,
      "##pouring ": 4512,
      "##church ": 4513,
      "##chshund ": 4514,
      "##basket .": 4515,
      "##before a ": 4516,
      "##happil": 4517,
      "##playing tug of ": 4518,
      "##military ": 4519,
      "children are ": 4520,
      "##quickly ": 4521,
      "##grocery ": 4522,
      "##jungle gym .": 4523,
      "##woodland path .": 4524,
      "##gility ": 4525,
      "##-and-": 4526,
      "##concert .": 4527,
      "\"people ": 4528,
      "brown ": 4529,
      "ski": 4530,
      "##y and white ": 4531,
      "##over .": 4532,
      "##ul": 4533,
      "##uses ": 4534,
      "##n and ": 4535,
      "##nur": 4536,
      "##net": 4537,
      "##g-": 4538,
      "##gen": 4539,
      "##gol": 4540,
      "##  a": 4541,
      "##bin": 4542,
      "##bru": 4543,
      "##bmx ": 4544,
      "##sla": 4545,
      "##ei": 4546,
      "##est": 4547,
      "##es at a ": 4548,
      "##iers ": 4549,
      "##ish ": 4550,
      "##hear": 4551,
      "##herse": 4552,
      "##tes ": 4553,
      "##ters ": 4554,
      "##tire .": 4555,
      "##ami": 4556,
      "##amin": 4557,
      "##wel": 4558,
      "##wea": 4559,
      "##well": 4560,
      "##wrap": 4561,
      "##lying on a ": 4562,
      "##din": 4563,
      "##dro": 4564,
      "##dand": 4565,
      "##da ": 4566,
      "##dinner ": 4567,
      "##mbo": 4568,
      "##mor": 4569,
      "##mod": 4570,
      "##c .": 4571,
      "##cup ": 4572,
      "##clow": 4573,
      "##cone ": 4574,
      "##cting ": 4575,
      "##crying ": 4576,
      "##pri": 4577,
      "##pit .": 4578,
      "##pati": 4579,
      "##f-": 4580,
      "##fanc": 4581,
      "##-a": 4582,
      "##ving the ": 4583,
      "##zo": 4584,
      "## area ": 4585,
      "## among ": 4586,
      "##ined ": 4587,
      "##inside ": 4588,
      "##inline ": 4589,
      "##s in the ": 4590,
      "##s his ": 4591,
      "##s in the background .": 4592,
      "a red ": 4593,
      "a ca": 4594,
      "a four ": 4595,
      "a lad": 4596,
      "a dog and ": 4597,
      "a laughing ": 4598,
      "a shirtless ": 4599,
      "##th .": 4600,
      "##thre": 4601,
      "##third ": 4602,
      "##there ": 4603,
      "##ery ": 4604,
      "##ers a ": 4605,
      "##er are ": 4606,
      "##erne": 4607,
      "##ro ": 4608,
      "##hik": 4609,
      "##lap": 4610,
      "##ladd": 4611,
      "##magaz": 4612,
      "##the pu": 4613,
      "##cker ": 4614,
      "##in grass .": 4615,
      "##in snow .": 4616,
      "##in water": 4617,
      "##in colorful ": 4618,
      "##in red and white ": 4619,
      "##in yellow": 4620,
      "##in winter ": 4621,
      "##ard": 4622,
      "##ary ": 4623,
      "##oned ": 4624,
      "##only ": 4625,
      "##is smiling ": 4626,
      "##is laying ": 4627,
      "##is leaping ": 4628,
      "##is swing": 4629,
      "##is trying to ": 4630,
      "##is watching a ": 4631,
      "##ston": 4632,
      "##stly ": 4633,
      "##irpor": 4634,
      "##unds ": 4635,
      "##man in a white ": 4636,
      "##dog show": 4637,
      "##dog sled ": 4638,
      "##ang": 4639,
      "##in a brown ": 4640,
      "##in a large ": 4641,
      "##in a ru": 4642,
      "##in a baby ": 4643,
      "##wade ": 4644,
      "##toy a": 4645,
      "##to another .": 4646,
      "##wild": 4647,
      "##white .": 4648,
      "##woo": 4649,
      "##ch and ": 4650,
      "##chunk ": 4651,
      "##ital ": 4652,
      "##itsel": 4653,
      "##itself ": 4654,
      "##item ": 4655,
      "##ba ": 4656,
      "##baby .": 4657,
      "##bags .": 4658,
      "##bares ": 4659,
      "##on grass ": 4660,
      "##log .": 4661,
      "##lots of ": 4662,
      "##book ": 4663,
      "##bove a ": 4664,
      "##le-": 4665,
      "##legs .": 4666,
      "##leot": 4667,
      "##on a field .": 4668,
      "##on a bike ": 4669,
      "##on a street .": 4670,
      "##on a street ": 4671,
      "##on a sidewalk .": 4672,
      "##on a beach": 4673,
      "##on a snowboard ": 4674,
      "##on a lawn .": 4675,
      "##plain .": 4676,
      "##hock": 4677,
      "##how ": 4678,
      "##hose .": 4679,
      "##home ": 4680,
      "##up an ": 4681,
      "a man holding ": 4682,
      "a man sits ": 4683,
      "a man carrying a ": 4684,
      "a man stands on a ": 4685,
      "a man wearing a black ": 4686,
      "a man falling ": 4687,
      "a man crou": 4688,
      "a man does ": 4689,
      "a man climbs ": 4690,
      "a man driv": 4691,
      "a man talks ": 4692,
      "##beco": 4693,
      "##bell": 4694,
      "##been ": 4695,
      "##befor": 4696,
      "##see ": 4697,
      "##sell": 4698,
      "##white shirt ": 4699,
      "##white building .": 4700,
      "##playing .": 4701,
      "##in the grass": 4702,
      "##in the win": 4703,
      "##in the yard .": 4704,
      "##in the back of a ": 4705,
      "##els ": 4706,
      "a box": 4707,
      "##com": 4708,
      "##cold ": 4709,
      "##cobb": 4710,
      "## are on a ": 4711,
      "a boy stands ": 4712,
      "a boy looks ": 4713,
      "a boy with his ": 4714,
      "a boy in red ": 4715,
      "a boy skateboards ": 4716,
      "##right .": 4717,
      "##with black ": 4718,
      "##with yellow ": 4719,
      "##with large ": 4720,
      "##with three ": 4721,
      "##with purple ": 4722,
      "##with sunglasses ": 4723,
      "##with four ": 4724,
      "##with many ": 4725,
      "##licking ": 4726,
      "##tag ": 4727,
      "##lly .": 4728,
      "##red frisbee .": 4729,
      "##with a woman ": 4730,
      "##with a person ": 4731,
      "##with a long ": 4732,
      "##with a big ": 4733,
      "##with a backpack ": 4734,
      "##jumped ": 4735,
      "##to her ": 4736,
      "##to get ": 4737,
      "##enti": 4738,
      "##urful ": 4739,
      "##ed on a ": 4740,
      "##ed by": 4741,
      "##ed by two ": 4742,
      "##stand and ": 4743,
      "##stand at the ": 4744,
      "##opposit": 4745,
      "##operat": 4746,
      "##ette": 4747,
      "##lugga": 4748,
      "##icy ": 4749,
      "##walk a": 4750,
      "##walk .": 4751,
      "##walks .": 4752,
      "##walkway ": 4753,
      "##ball in its mouth .": 4754,
      "##on the ice ": 4755,
      "##on the sidewalk ": 4756,
      "##on the phone ": 4757,
      "##on the floor .": 4758,
      "##on the pave": 4759,
      "##pos": 4760,
      "##pose": 4761,
      "##poles .": 4762,
      "##polo ": 4763,
      "## and a fe": 4764,
      "a girl sits ": 4765,
      "a girl has ": 4766,
      "a girl with a black ": 4767,
      "a girl dances ": 4768,
      "##black dog": 4769,
      "##ing against ": 4770,
      "##riders ": 4771,
      "##sides ": 4772,
      "##easter": 4773,
      "##woman holding a ": 4774,
      "##woman in a black ": 4775,
      "##blue water .": 4776,
      "##s are": 4777,
      "##s along a ": 4778,
      "##s across a ": 4779,
      "##s airbor": 4780,
      "##soda ": 4781,
      "a group of women ": 4782,
      "a group of girls are ": 4783,
      "a group of five ": 4784,
      "a group of friends ": 4785,
      "a group of bicyclists ": 4786,
      "##holding an ": 4787,
      "\"a crowd ": 4788,
      "\"a brown and white dog ": 4789,
      "\"a black and brown dog ": 4790,
      "##past": 4791,
      "##pass .": 4792,
      "##palm ": 4793,
      "##pate in a ": 4794,
      "##shirt jumps ": 4795,
      "##shirt holds a ": 4796,
      "##girl   ": 4797,
      "##girl wearing a ": 4798,
      "##girl wearing ": 4799,
      "##bill": 4800,
      "##cart": 4801,
      "##playing ball ": 4802,
      "##playing in the water .": 4803,
      "##playing outside ": 4804,
      "##playing together ": 4805,
      "##ir of ": 4806,
      "##child on a ": 4807,
      "##child 's ": 4808,
      "##while wearing a ": 4809,
      "##while they ": 4810,
      "##shin": 4811,
      "two big ": 4812,
      "two elderly ": 4813,
      "two blond ": 4814,
      "##its mouth .": 4815,
      "##its wings ": 4816,
      "##father ": 4817,
      "##running in the ": 4818,
      "##running in the snow .": 4819,
      "##running on the beach ": 4820,
      "##standing beside ": 4821,
      "##mans ": 4822,
      "##maneu": 4823,
      "a black man is ": 4824,
      "##low cut ": 4825,
      "##by his ": 4826,
      "##neck ": 4827,
      "##neigh": 4828,
      "##two other ": 4829,
      "##sitting around a ": 4830,
      "##bus ": 4831,
      "##bucket": 4832,
      "##outstrea": 4833,
      "a man in a hat ": 4834,
      "a man in a purple ": 4835,
      "a man in a gray ": 4836,
      "a man in a wetsuit is ": 4837,
      "##food": 4838,
      "##follow ": 4839,
      "a dog jumping ": 4840,
      "a child wearing ": 4841,
      "##bike and ": 4842,
      "##biker is ": 4843,
      "##skating down a ": 4844,
      "##water on a beach .": 4845,
      "##over an ": 4846,
      "##overall": 4847,
      "##parti": 4848,
      "##backs ": 4849,
      "##leaf": 4850,
      "##lean ": 4851,
      "##leap ": 4852,
      "##climbs an ": 4853,
      "##wearing orange ": 4854,
      "##wearing muzz": 4855,
      "##in front of a red ": 4856,
      "##in front of a fence .": 4857,
      "##in front of a waterfall .": 4858,
      "##in front of a house .": 4859,
      "##large wave .": 4860,
      "##div": 4861,
      "##die ": 4862,
      "##person 's ": 4863,
      "##game": 4864,
      "##suit .": 4865,
      "##sumo ": 4866,
      "##racing .": 4867,
      "##racquet .": 4868,
      "##off-": 4869,
      "##tight": 4870,
      "##one hand ": 4871,
      "##run .": 4872,
      "##player in ": 4873,
      "##player in a ": 4874,
      "##player from the ": 4875,
      "##player in white ": 4876,
      "##her head .": 4877,
      "##chain ": 4878,
      "##challe": 4879,
      "##dresses ": 4880,
      "##jumps on a ": 4881,
      "##jumps over ": 4882,
      "##jumps in the air ": 4883,
      "##jumps high ": 4884,
      "##swing in a ": 4885,
      "##while an adult ": 4886,
      "a little baby ": 4887,
      "a little boy and a ": 4888,
      "a brown dog runs ": 4889,
      "a brown dog walks ": 4890,
      "a brown dog carrying a ": 4891,
      "a brown dog leaps ": 4892,
      "a brown dog running through the ": 4893,
      "##behind .\"": 4894,
      "##over a snowy ": 4895,
      "a crow": 4896,
      "##walking in front of a ": 4897,
      "##walking through ": 4898,
      "##reads a ": 4899,
      "##stands near a ": 4900,
      "##down to ": 4901,
      "##down from a ": 4902,
      "##trick": 4903,
      "##tripo": 4904,
      "##mom ": 4905,
      "##mostly ": 4906,
      "##goat ": 4907,
      "##goal ": 4908,
      "##goes down a ": 4909,
      "a man about to ": 4910,
      "##fessi": 4911,
      "##females ": 4912,
      "##s and is ": 4913,
      "a girl in a dress ": 4914,
      "a black dog leaps ": 4915,
      "##runs in the ": 4916,
      "##faces ": 4917,
      "##facing the ": 4918,
      "##heads ": 4919,
      "##shorts are ": 4920,
      "a boy in a swimsuit ": 4921,
      "a coa": 4922,
      "a comp": 4923,
      "##ments ": 4924,
      "##wooded ": 4925,
      "## at a park .": 4926,
      "##field .\"": 4927,
      "##small dog ": 4928,
      "a person wearing ": 4929,
      "##stare": 4930,
      "the children ": 4931,
      "the children are ": 4932,
      "the girls are ": 4933,
      "a brown and a ": 4934,
      "a woman holding a ": 4935,
      "##by a tree .": 4936,
      "##by a tree": 4937,
      "##people at a ": 4938,
      "##watching the ": 4939,
      "##watches": 4940,
      "##watched by ": 4941,
      "##through his ": 4942,
      "##through water .": 4943,
      "##mountaintop .": 4944,
      "##young child ": 4945,
      "##young people ": 4946,
      "##treat ": 4947,
      "##plays the ": 4948,
      "##plays in the water .": 4949,
      "a brown dog is walking ": 4950,
      "a brown dog is carrying a ": 4951,
      "##pical ": 4952,
      "##dirt path .": 4953,
      "##desk .": 4954,
      "##buildings ": 4955,
      "##colourful ": 4956,
      "##holding onto a ": 4957,
      "##slide": 4958,
      "##d at the ": 4959,
      "##bend ": 4960,
      "##field with ": 4961,
      "##field   ": 4962,
      "##bike rider ": 4963,
      "##cone .": 4964,
      "##constru": 4965,
      "a group of people ride ": 4966,
      "a group of people gather ": 4967,
      "##gging a ": 4968,
      "##tor .": 4969,
      "##on his skateboard ": 4970,
      "##on his bike .": 4971,
      "a couple in ": 4972,
      "##uniformed ": 4973,
      "##tennis .": 4974,
      "##tennis ball": 4975,
      "##into a pool ": 4976,
      "##riding a bicycle ": 4977,
      "##riding a bicycle .": 4978,
      "##les with a ": 4979,
      "##glasses and a ": 4980,
      "##ducks ": 4981,
      "##ding down a ": 4982,
      "##picks ": 4983,
      "##for a ball ": 4984,
      "##for a ball .": 4985,
      "##looks out ": 4986,
      "##sitting on a red ": 4987,
      "a black and white dog jumping in the air ": 4988,
      "##shaw": 4989,
      "##hands and ": 4990,
      "##handrail .": 4991,
      "##eats a ": 4992,
      "##tub ": 4993,
      "##hug ": 4994,
      "##hudd": 4995,
      "## at the end of a ": 4996,
      "##barrel": 4997,
      "##ppy ": 4998,
      "##pproa": 4999,
      "##that has a ": 5000,
      "##chew ": 5001,
      "##checks ": 5002,
      "##longside a ": 5003,
      "##in an outdoor ": 5004,
      "##in an empty ": 5005,
      "##stuck ": 5006,
      "##purse ": 5007,
      "##looking out ": 5008,
      "##sab": 5009,
      "##saying ": 5010,
      "##wind": 5011,
      "##wine ": 5012,
      "##doing a handstand ": 5013,
      "##doing a back flip ": 5014,
      "##with his bike .": 5015,
      "##with his skateboard .": 5016,
      "##off camera .": 5017,
      "##off into the ": 5018,
      "##smiling and ": 5019,
      "##while a girl ": 5020,
      "##while a boy ": 5021,
      "##while a brown dog ": 5022,
      "## as others ": 5023,
      "##fenced ": 5024,
      "##land .": 5025,
      "##lands ": 5026,
      "##in his hand .": 5027,
      "##dressed in black ": 5028,
      "##night": 5029,
      "##lake and ": 5030,
      "a baby boy ": 5031,
      "##flag .": 5032,
      "##led up ": 5033,
      "a dog is running through a ": 5034,
      "##walk down the ": 5035,
      "##stick in his mouth .": 5036,
      "##into the pool .": 5037,
      "##up a hill .": 5038,
      "##posing together ": 5039,
      "##posing together .": 5040,
      "##ing the ball": 5041,
      "##toy car .": 5042,
      "##performan": 5043,
      "##motorcyclist ": 5044,
      "##shirt and tie ": 5045,
      "##carrying a large ": 5046,
      "a black dog is running ": 5047,
      "a guy in ": 5048,
      "##dog and a black and white dog are ": 5049,
      "##bicycle": 5050,
      "##way from ": 5051,
      "##dancers ": 5052,
      "##big city .": 5053,
      "a black and white dog is running through the ": 5054,
      "##boy are ": 5055,
      "##playing with a ball ": 5056,
      "##cloth ": 5057,
      "##white a": 5058,
      "##wooden fence .": 5059,
      "##daugh": 5060,
      "##is standing on ": 5061,
      "##is standing on top of a ": 5062,
      "##riding bikes ": 5063,
      "##driver ": 5064,
      "##drive ": 5065,
      "## atv": 5066,
      "##mouth wide ": 5067,
      "##underwater .": 5068,
      "##underwater ": 5069,
      "##course": 5070,
      "##carries an ": 5071,
      "##sit at a ": 5072,
      "##running around ": 5073,
      "\"a man in a yellow ": 5074,
      "##flowered ": 5075,
      "a blonde child ": 5076,
      "a blonde haired ": 5077,
      "##helmet is ": 5078,
      "##scre": 5079,
      "##ers .\"": 5080,
      "##motorcycle": 5081,
      "##railroad ": 5082,
      "##sit in a ": 5083,
      "##ed and ": 5084,
      "##basketball player ": 5085,
      "##head and ": 5086,
      "##headband": 5087,
      "##headfirst ": 5088,
      "four people ": 5089,
      "four children are ": 5090,
      "##rides down a ": 5091,
      "##rides his bike ": 5092,
      "##rides his skateboard ": 5093,
      "a lady holds a ": 5094,
      "##collie ": 5095,
      "##costume .": 5096,
      "##costumes .": 5097,
      "##surfboarder ": 5098,
      "##open .": 5099,
      "## and an adult ": 5100,
      "##fish .": 5101,
      "##colored dog runs ": 5102,
      "##to catch a ball ": 5103,
      "##exit": 5104,
      "##exten": 5105,
      "##excit": 5106,
      "##expre": 5107,
      "##examin": 5108,
      "##kids .": 5109,
      "##kiddie ": 5110,
      "##mountain range .": 5111,
      "##sunglasses is ": 5112,
      "a lone person ": 5113,
      "a lone skier ": 5114,
      "##als ": 5115,
      "##boat is ": 5116,
      "##holds the ": 5117,
      "##holds up a ": 5118,
      "one dog ": 5119,
      "one girl is ": 5120,
      "##sledge ": 5121,
      "##es as ": 5122,
      "##es as a ": 5123,
      "##es across the ": 5124,
      "##he is ": 5125,
      "a large man ": 5126,
      "a large dog ": 5127,
      "a large white bird ": 5128,
      "##jackets ": 5129,
      "##with the sun ": 5130,
      "##climbing a tree .": 5131,
      "##striped shirt .": 5132,
      "##runs along a ": 5133,
      "##runs across the ": 5134,
      "a man and a woman in ": 5135,
      "##tree trun": 5136,
      "##mid ": 5137,
      "##miami": 5138,
      "##laughs while ": 5139,
      "##cap .": 5140,
      "##next to her ": 5141,
      "##next to her .": 5142,
      "##city street with ": 5143,
      "##hard ": 5144,
      "##hand while ": 5145,
      "##works ": 5146,
      "##house": 5147,
      "##running through the grass .": 5148,
      "##surrounded by a ": 5149,
      "##pull a ": 5150,
      "##over the water .": 5151,
      "##white and pink ": 5152,
      "##white and orange ": 5153,
      "##white and brown dog ": 5154,
      "##during a game ": 5155,
      "##wrestl": 5156,
      "##wrestle ": 5157,
      "a bicyclist is attempting a ": 5158,
      "##guitar and ": 5159,
      "##kicking the ": 5160,
      "##y area .": 5161,
      "##gie ": 5162,
      "##gives ": 5163,
      "##backpack": 5164,
      "the two girls are ": 5165,
      "a biker is ": 5166,
      "a young girl ": 5167,
      "##ation ": 5168,
      "a small boy ": 5169,
      "a small white dog ": 5170,
      "##pushes a ": 5171,
      "##bright colored ": 5172,
      "##baseball game .": 5173,
      "##baseball cap ": 5174,
      "##ed at ": 5175,
      "##ed area .": 5176,
      "##lift ": 5177,
      "##blocks ": 5178,
      "##professi": 5179,
      "##raised .": 5180,
      "##compu": 5181,
      "a man in a blue shirt ": 5182,
      "a man in a blue jacket ": 5183,
      "##brick building .": 5184,
      "##leaning on a ": 5185,
      "##  one with a ": 5186,
      "a girl in a pink shirt ": 5187,
      "##hanging from a ": 5188,
      "##sign that says \"\" ": 5189,
      "##motorcycle is being ": 5190,
      "##bank .": 5191,
      "##eye ": 5192,
      "##fetches a ": 5193,
      "##standing on its ": 5194,
      "##ropes ": 5195,
      "##ropes .": 5196,
      "##ropean ": 5197,
      "##borhoo": 5198,
      "a man in a red shirt is ": 5199,
      "##jumps over a hurdle .": 5200,
      "##wheeler ": 5201,
      "##kite .": 5202,
      "##hills .": 5203,
      "##red and white uniform ": 5204,
      "## and another man ": 5205,
      "##tronic ": 5206,
      "##tropical ": 5207,
      "## around the ": 5208,
      "a male hiker ": 5209,
      "a male tennis player ": 5210,
      "##is walking next to a ": 5211,
      "## and blue jeans ": 5212,
      "##bounds ": 5213,
      "##bearded man ": 5214,
      "##fighter ": 5215,
      "##object in its mouth .": 5216,
      "##bird .": 5217,
      "##plane .": 5218,
      "##plants ": 5219,
      "##beside him .": 5220,
      "##beside it .": 5221,
      "##peak .": 5222,
      "##counter .": 5223,
      "##coat and ": 5224,
      "a black dog and a brown dog are ": 5225,
      "##taking a picture ": 5226,
      "##trick on a skateboard .": 5227,
      "##harness .": 5228,
      "##towards the camera .": 5229,
      "##s at night .": 5230,
      "##sticks .": 5231,
      "##performing a trick ": 5232,
      "##umbrella ": 5233,
      "##eleph": 5234,
      "## as a man ": 5235,
      "a dark skinned man ": 5236,
      "a green ": 5237,
      "a boy in a blue shirt is ": 5238,
      "##rollerskat": 5239,
      "##port ": 5240,
      "##fur ": 5241,
      "##couple of ": 5242,
      "##spraying ": 5243,
      "an elderly woman is ": 5244,
      "##sandy beach ": 5245,
      "##pitbull ": 5246,
      "##mask ": 5247,
      "a busy ": 5248,
      "##horse and ": 5249,
      "##sniffs a ": 5250,
      "##spinning ": 5251,
      "##dry grass .": 5252,
      "##wears a red ": 5253,
      "a group of young men ": 5254,
      "##shopping cart ": 5255,
      "##follows .": 5256,
      "##overlooks a ": 5257,
      "the three dogs are ": 5258,
      "##floats ": 5259,
      "##is attached ": 5260,
      "##in a field of grass .": 5261,
      "##clear": 5262,
      "##ladies are ": 5263,
      "##on a dirt road .": 5264,
      "##park   ": 5265,
      "##suit and ": 5266,
      "a black and brown dog is running ": 5267,
      "##scene ": 5268,
      "##doing tricks on a ": 5269,
      "##statue .": 5270,
      "##statue of a ": 5271,
      "two dogs play ": 5272,
      "##turning a ": 5273,
      "##cloudy ": 5274,
      "##covered in graffiti .": 5275,
      "##posing for a picture .": 5276,
      "##corner .": 5277,
      "##balloon ": 5278,
      "##balloons ": 5279,
      "##tongue hanging out .": 5280,
      "##patter": 5281,
      "##vidu": 5282,
      "##watch the ": 5283,
      "##jumping into a pool .": 5284,
      "##behind her .\"": 5285,
      "##mouth open .": 5286,
      "##rollerbla": 5287,
      "a man dressed in a ": 5288,
      "##jeans .": 5289,
      "##splashes in the water .": 5290,
      "##sculp": 5291,
      "##scuba ": 5292,
      "##speak": 5293,
      "##performs a trick ": 5294,
      "an african american ": 5295,
      "##waiting for the ": 5296,
      "##bouncing on a ": 5297,
      "##scooter .": 5298,
      "##platform ": 5299,
      "two a": 5300,
      "##branch": 5301,
      "##individu": 5302,
      "a child and ": 5303,
      "##thlete ": 5304,
      "##lays on a ": 5305,
      "##party .": 5306,
      "##wooded area ": 5307,
      "##muzzle ": 5308,
      "a couple of people ": 5309,
      "##wheel of a ": 5310,
      "##gate .": 5311,
      "##center .": 5312,
      "##thrown by a ": 5313,
      "a bmx biker ": 5314,
      "##sea .": 5315,
      "a boy in blue shorts ": 5316,
      "\"a black   ": 5317,
      "two men in ": 5318,
      "##sitting at a table ": 5319,
      "##crossed .": 5320,
      "##shaking off ": 5321,
      "##dark-haired ": 5322,
      "##dribbles a ": 5323,
      "##where ": 5324,
      "##where .": 5325,
      "##prepares ": 5326,
      "##stunt on a ": 5327,
      "##scaling a ": 5328,
      "##european ": 5329,
      "## adverti": 5330,
      "a smiling woman ": 5331,
      "##retriev": 5332,
      "##skyline .": 5333,
      "##over his head .": 5334,
      "##desert .": 5335,
      "##sits alone ": 5336,
      "##staircase ": 5337,
      "a baseball pitch": 5338,
      "##block him .": 5339,
      "##furry dog is ": 5340,
      "##emerging ": 5341,
      "##emerges ": 5342,
      "##farm": 5343,
      "##machine ": 5344,
      "##bald man ": 5345,
      "##with a tennis ball in its mouth .": 5346,
      "##themsel": 5347,
      "##close to the ": 5348,
      "##picnic table .": 5349,
      "##walks down the street ": 5350,
      "##speeds ": 5351,
      "##biting onto a ": 5352,
      "##hardwood ": 5353,
      "##paddling pool .": 5354,
      "##electronic ": 5355,
      "##garden .": 5356,
      "a beige dog ": 5357,
      "##udience .": 5358,
      "##t and a child ": 5359,
      "a mother ": 5360,
      "##forward .": 5361,
      "##carnival ": 5362,
      "##outstretched ": 5363,
      "##outstretched .": 5364,
      "##backwards ": 5365,
      "##vest and ": 5366,
      "##through deep water ": 5367,
      "##spread ": 5368,
      "##chested man ": 5369,
      "##courtyard .": 5370,
      "##creek .": 5371,
      "##preparing to ": 5372,
      "##blowing bubbles ": 5373,
      "##crawl": 5374,
      "##toddler is ": 5375,
      "##tank top and ": 5376,
      "##bottom of a ": 5377,
      "##mirror .": 5378,
      "##participat": 5379,
      "##participate in a ": 5380,
      "##tiny ": 5381,
      "##pirate ": 5382,
      "a pair of ": 5383,
      "##in motion .": 5384,
      "##charac": 5385,
      "##living room .": 5386,
      "##half-": 5387,
      "##orange and white ": 5388,
      "##festival .": 5389,
      "##public ": 5390,
      "##tennis racket .": 5391,
      "##stuffed ": 5392,
      "## attached to ": 5393,
      "##talking on a cellphone .": 5394,
      "##countryside .": 5395,
      "##cowboy hat ": 5396,
      "##policeman ": 5397,
      "##through an obstacle course ": 5398,
      "##stuffed animals .": 5399,
      "##christmas tree .": 5400,
      "##martial arts ": 5401,
      "##circu": 5402,
      "##valley .": 5403,
      "a homeless man ": 5404,
      "##in mid-": 5405,
      "##enclosed ": 5406,
      "##shoveling ": 5407,
      "##bushes .": 5408,
      "a curly haired ": 5409,
      "##guys are ": 5410,
      "a couple are ": 5411,
      "##spiderman ": 5412,
      "a black and tan dog is ": 5413,
      "##navy blue ": 5414,
      "##wedding ": 5415,
      "an adult and a child ": 5416,
      "a basketball player": 5417,
      "##sheer rock ": 5418,
      "##smiles at the camera .": 5419,
      "##traffic .": 5420,
      "##retriever ": 5421,
      "##practicing ": 5422,
      "##everywhere .": 5423,
      "##polka dot ": 5424,
      "##suspended ": 5425,
      "##bleach": 5426,
      "##slip and ": 5427,
      "##fruit ": 5428,
      "a fisherman ": 5429,
      "a downhill skier ": 5430,
      "##though": 5431,
      "##thumbs ": 5432,
      "##rodeo ": 5433,
      "##recei": 5434,
      "##on rollerblades ": 5435,
      "##hot pink ": 5436,
      "##in the foreground .": 5437,
      "##chicken": 5438,
      "two black and white dogs ": 5439,
      "##similar": 5440,
      "##gallery .": 5441,
      "a cricket ": 5442,
      "##device ": 5443,
      "##students ": 5444,
      "## at dusk .": 5445,
      "##safety ": 5446,
      "##tree stump .": 5447,
      "##hanging upside down from a ": 5448,
      "##siness ": 5449,
      "##electric ": 5450,
      "##playing tug of war ": 5451,
      "##-and-white dog ": 5452,
      "##fancy ": 5453,
      "##the puck ": 5454,
      "##dog show .": 5455,
      "##wilderne": 5456,
      "##chunk of ": 5457,
      "##become": 5458,
      "##before ": 5459,
      "##opposite ": 5460,
      "##eastern ": 5461,
      "##neighborhoo": 5462,
      "##partially ": 5463,
      "##expressi": 5464,
      "##miami ": 5465,
      "##professional ": 5466,
      "##neighborhood .": 5467,
      "\"a": 5468,
      "a a": 5469,
      "adul": 5470,
      "fo": 5471,
      "litt": 5472,
      "##y and a ": 5473,
      "##y and white dog ": 5474,
      "##ype ": 5475,
      "##oba": 5476,
      "##ota": 5477,
      "##occ": 5478,
      "##own ": 5479,
      "##oise ": 5480,
      "##ular": 5481,
      "##um .": 5482,
      "##utu": 5483,
      "##nin": 5484,
      "##nar": 5485,
      "##ns .": 5486,
      "##ger": 5487,
      "##gri": 5488,
      "##ging on a ": 5489,
      "##gers ": 5490,
      "##gital ": 5491,
      "## \"": 5492,
      "##  and white ": 5493,
      "##  and white dog ": 5494,
      "##bon": 5495,
      "##bun": 5496,
      "##blow ": 5497,
      "##bund": 5498,
      "##bride ": 5499,
      "##blur": 5500,
      "##brunette ": 5501,
      "##sman ": 5502,
      "##sor": 5503,
      "##sli": 5504,
      "##spar": 5505,
      "##s an a": 5506,
      "##ssa": 5507,
      "##sings ": 5508,
      "##s and": 5509,
      "##sati": 5510,
      "##spark": 5511,
      "##s another": 5512,
      "##ey .": 5513,
      "##esta": 5514,
      "##eding ": 5515,
      "##e at ": 5516,
      "##ep .": 5517,
      "##ed .\"": 5518,
      "##im": 5519,
      "##ion ": 5520,
      "##ile": 5521,
      "##ian ": 5522,
      "##trac": 5523,
      "##tes .": 5524,
      "##type ": 5525,
      "##ring": 5526,
      "##what": 5527,
      "##wire .": 5528,
      "##lma": 5529,
      "##lun": 5530,
      "##ling": 5531,
      "##llo": 5532,
      "##lli": 5533,
      "##lits ": 5534,
      "##ly-": 5535,
      "##lso ": 5536,
      "##dy": 5537,
      "##dg": 5538,
      "##dit": 5539,
      "##des ": 5540,
      "##ds another ": 5541,
      "##de .\"": 5542,
      "##dboard ": 5543,
      "##dverti": 5544,
      "##mer ": 5545,
      "##mur": 5546,
      "##mitt": 5547,
      "##mother ": 5548,
      "##mn .": 5549,
      "##cs ": 5550,
      "##cru": 5551,
      "##cramp": 5552,
      "##cran": 5553,
      "##cyclists ": 5554,
      "##ky ": 5555,
      "##kes a ": 5556,
      "##k   ": 5557,
      "##pt ": 5558,
      "##per ": 5559,
      "##ple ": 5560,
      "##pop": 5561,
      "##plu": 5562,
      "##prin": 5563,
      "##fer": 5564,
      "##fan": 5565,
      "##fel": 5566,
      "##fly": 5567,
      "##ja ": 5568,
      "##' ": 5569,
      "##28": 5570,
      "##zi": 5571,
      "##zing ": 5572,
      "##zed ": 5573,
      "## att": 5574,
      "## air .": 5575,
      "## along ": 5576,
      "## around .": 5577,
      "##ins ": 5578,
      "##ines .": 5579,
      "##indu": 5580,
      "##instruc": 5581,
      "##inese ": 5582,
      "##inclu": 5583,
      "##into an ": 5584,
      "##s with a ": 5585,
      "##s their ": 5586,
      "a d": 5587,
      "a do": 5588,
      "a ma": 5589,
      "a lo": 5590,
      "a dog": 5591,
      "a per": 5592,
      "a di": 5593,
      "a red": 5594,
      "a camera ": 5595,
      "a car ": 5596,
      "a elderly ": 5597,
      "a horse ": 5598,
      "a motorcycle ": 5599,
      "a puppy ": 5600,
      "a wet ": 5601,
      "a fire": 5602,
      "a toddler ": 5603,
      "a snowboard": 5604,
      "a chu": 5605,
      "a cat ": 5606,
      "a male": 5607,
      "a japanese ": 5608,
      "a cheerleader ": 5609,
      "a jockey ": 5610,
      "a swan ": 5611,
      "a motocross ": 5612,
      "a kite ": 5613,
      "a dark-": 5614,
      "a jogger ": 5615,
      "a driver ": 5616,
      "##thin ": 5617,
      "##than": 5618,
      "##ther .": 5619,
      "##thered ": 5620,
      "##n with a ": 5621,
      "##ing in the ": 5622,
      "##ing to a ": 5623,
      "##ing for the ": 5624,
      "##ersa": 5625,
      "##erci": 5626,
      "##roof": 5627,
      "##romp": 5628,
      "##hits ": 5629,
      "##hit the ": 5630,
      "##lage ": 5631,
      "##lap ": 5632,
      "##late": 5633,
      "##t is ": 5634,
      "##t with ": 5635,
      "##do a ": 5636,
      "##dock .": 5637,
      "##domin": 5638,
      "##dober": 5639,
      "##dodg": 5640,
      "##res .": 5641,
      "##res a ": 5642,
      "##rest ": 5643,
      "##rena": 5644,
      "##recor": 5645,
      "##rescu": 5646,
      "##repel": 5647,
      "##the hand ": 5648,
      "##the same ": 5649,
      "##the rapids .": 5650,
      "## an an": 5651,
      "##cked ": 5652,
      "##in snow": 5653,
      "##in fron": 5654,
      "##in pink ": 5655,
      "##in swim": 5656,
      "##in pro": 5657,
      "##in muddy ": 5658,
      "##in pink": 5659,
      "##in blue .": 5660,
      "a bor": 5661,
      "a bri": 5662,
      "a brin": 5663,
      "a bare ": 5664,
      "##ari": 5665,
      "##one .": 5666,
      "##onso": 5667,
      "##ontal ": 5668,
      "##onstage .": 5669,
      "##onstage ": 5670,
      "##er in a ": 5671,
      "##is wearing a ": 5672,
      "##is lea": 5673,
      "##is running through a ": 5674,
      "##is flying ": 5675,
      "##is looking at ": 5676,
      "##is making a ": 5677,
      "##is drinking ": 5678,
      "##is falling ": 5679,
      "##is bending ": 5680,
      "##is splashing in a ": 5681,
      "##sts .": 5682,
      "##sten": 5683,
      "##stea": 5684,
      "##stanc": 5685,
      "##strai": 5686,
      "##stone": 5687,
      "##string ": 5688,
      "##ing are ": 5689,
      "##man in a blue ": 5690,
      "##dog to ": 5691,
      "##dog toy ": 5692,
      "##dog toy .": 5693,
      "##ana": 5694,
      "##in a game .": 5695,
      "##in a race ": 5696,
      "##in a boat ": 5697,
      "##in a crowd ": 5698,
      "##in a black and white ": 5699,
      "##in a yard .": 5700,
      "##in a field": 5701,
      "##in a crowd .": 5702,
      "##in a forest .": 5703,
      "##in a black and red ": 5704,
      "##in a snowy field .": 5705,
      "##in a race": 5706,
      "##in a swimming pool ": 5707,
      "##in a skate park .": 5708,
      "##in a european ": 5709,
      "##wai": 5710,
      "##was ": 5711,
      "##ways ": 5712,
      "## and their ": 5713,
      "## and looking ": 5714,
      "##tow": 5715,
      "##tosse": 5716,
      "##tool": 5717,
      "##toys ": 5718,
      "##towe": 5719,
      "##too ": 5720,
      "##toile": 5721,
      "##wide": 5722,
      "##wield": 5723,
      "##with a": 5724,
      "##che ": 5725,
      "##chop": 5726,
      "##chinese ": 5727,
      "##bad": 5728,
      "##bare": 5729,
      "##babi": 5730,
      "##bat .": 5731,
      "##barefoot ": 5732,
      "##on   ": 5733,
      "##on ca": 5734,
      "##on two ": 5735,
      "##on snow .": 5736,
      "##on to the ": 5737,
      "##on green grass .": 5738,
      "##on horse": 5739,
      "##on leash": 5740,
      "##on fire .": 5741,
      "##lor": 5742,
      "##love ": 5743,
      "##ral": 5744,
      "##racket": 5745,
      "##raft .": 5746,
      "##booth": 5747,
      "##bout ": 5748,
      "##box ": 5749,
      "##ing a red ": 5750,
      "##les": 5751,
      "##lef": 5752,
      "##les and ": 5753,
      "##left": 5754,
      "##lebra": 5755,
      "##on a pink ": 5756,
      "##on a rock ": 5757,
      "##on a ramp .": 5758,
      "##on a bench .": 5759,
      "##on a very ": 5760,
      "##on a muddy ": 5761,
      "##on a snowy mountain .": 5762,
      "##on a cement ": 5763,
      "##on a trail .": 5764,
      "##on a man 's ": 5765,
      "##on a stage .": 5766,
      "##on a busy street .": 5767,
      "##on a tire swing .": 5768,
      "##of her ": 5769,
      "##of water": 5770,
      "##of snow ": 5771,
      "##of multi": 5772,
      "##plaz": 5773,
      "##place": 5774,
      "##place ": 5775,
      "##hover": 5776,
      "##hose ": 5777,
      "##hole .": 5778,
      "##hound ": 5779,
      "##hood ": 5780,
      "##hole in the ": 5781,
      "a german shepherd ": 5782,
      "##upi": 5783,
      "a man stand": 5784,
      "a man playing ": 5785,
      "a man climb": 5786,
      "a man stands ": 5787,
      "a man looks ": 5788,
      "a man has ": 5789,
      "a man standing on a ": 5790,
      "a man fish": 5791,
      "a man sits on a ": 5792,
      "a man performing a ": 5793,
      "a man playing a ": 5794,
      "a man sits in a ": 5795,
      "a man is about to ": 5796,
      "a man help": 5797,
      "a man performs a ": 5798,
      "a man surfing a ": 5799,
      "a man gets ready to ": 5800,
      "a man dressed as ": 5801,
      "a man helping a ": 5802,
      "a man dives ": 5803,
      "##bel": 5804,
      "##bean": 5805,
      "##below ": 5806,
      "##bed and ": 5807,
      "##ses a ": 5808,
      "##secur": 5809,
      "##lding ": 5810,
      "##ears .": 5811,
      "##earth .": 5812,
      "##mpy ": 5813,
      "##ori": 5814,
      "##orna": 5815,
      "##white snow .": 5816,
      "##plaype": 5817,
      "##players .": 5818,
      "##playing an a": 5819,
      "##in the red ": 5820,
      "##in the gras": 5821,
      "##in the pool .": 5822,
      "##in the sand": 5823,
      "##in the bath": 5824,
      "##in the forest .": 5825,
      "##waters ": 5826,
      "##at .": 5827,
      "##ates ": 5828,
      "##ater .": 5829,
      "a body ": 5830,
      "##comm": 5831,
      "a boy walks ": 5832,
      "a boy carries a ": 5833,
      "a boy rides a ": 5834,
      "a boy playing in a ": 5835,
      "a boy poses ": 5836,
      "a boy wearing a white ": 5837,
      "a boy hits a ": 5838,
      "a boy smiles ": 5839,
      "a boy rides his ": 5840,
      "##with brown ": 5841,
      "##with water .": 5842,
      "##with green ": 5843,
      "##with pink ": 5844,
      "##with big ": 5845,
      "##with trees ": 5846,
      "##with onlookers ": 5847,
      "##lick": 5848,
      "##licks ": 5849,
      "##liage .": 5850,
      "##up of ": 5851,
      "##up in the air ": 5852,
      "##tail": 5853,
      "##taller ": 5854,
      "##run a": 5855,
      "##run along the ": 5856,
      "##red   ": 5857,
      "##red slide .": 5858,
      "##with a brown dog ": 5859,
      "##with a skateboard ": 5860,
      "##with a toy ": 5861,
      "##with a white dog ": 5862,
      "##with a group of ": 5863,
      "##with a huge ": 5864,
      "##with a wave ": 5865,
      "##with a man in a ": 5866,
      "##with a few ": 5867,
      "##jumping around ": 5868,
      "##ends ": 5869,
      "##urban": 5870,
      "##ed in the ": 5871,
      "##ed wall .": 5872,
      "##standing at a ": 5873,
      "##sku": 5874,
      "##sk ": 5875,
      "##not ": 5876,
      "##noon ": 5877,
      "##shie ": 5878,
      "##ship ": 5879,
      "##shift ": 5880,
      "##et and ": 5881,
      "##of a red ": 5882,
      "##  on a ": 5883,
      "##  wearing a ": 5884,
      "##wearing a": 5885,
      "##hau": 5886,
      "##hay ": 5887,
      "##hall": 5888,
      "##having ": 5889,
      "##hallow": 5890,
      "##hawai": 5891,
      "##his way ": 5892,
      "##snow-covered ": 5893,
      "##snowmobi": 5894,
      "##ical ": 5895,
      "##walk and ": 5896,
      "##grabb": 5897,
      "##bluff": 5898,
      "##ball   ": 5899,
      "##ball from ": 5900,
      "##ball in his mouth .": 5901,
      "##on the water ": 5902,
      "##on the ground .": 5903,
      "##on the dirt ": 5904,
      "##on the street": 5905,
      "##on the ground": 5906,
      "##on the steps ": 5907,
      "##on the left ": 5908,
      "##on the side of the ": 5909,
      "##on the chee": 5910,
      "##pose .": 5911,
      "## and a man .": 5912,
      "a girl playing ": 5913,
      "a girl stands ": 5914,
      "a girl dressed ": 5915,
      "a girl does a ": 5916,
      "a girl holds ": 5917,
      "a girl in green ": 5918,
      "##black   ": 5919,
      "##dog approa": 5920,
      "##ing at": 5921,
      "##ing american ": 5922,
      "##ing after ": 5923,
      "##ing around .": 5924,
      "##dow .": 5925,
      "##riding along a ": 5926,
      "##fil": 5927,
      "##woman in a white ": 5928,
      "##woman wearing a blue ": 5929,
      "##blue ball .": 5930,
      "##s after a ": 5931,
      "##s atop a ": 5932,
      "##s among ": 5933,
      "##theater .": 5934,
      "##soar": 5935,
      "##soci": 5936,
      "a group of horse": 5937,
      "a group of girls in ": 5938,
      "a group of greyhound dogs ": 5939,
      "##roughly ": 5940,
      "##other players .": 5941,
      "##cast ": 5942,
      "##cave ": 5943,
      "##cake ": 5944,
      "##camo ": 5945,
      "##cave .": 5946,
      "\"a blue ": 5947,
      "\"a small ": 5948,
      "\"a crowd of ": 5949,
      "\"a blond ": 5950,
      "\"a crowd of people ": 5951,
      "\"a large   ": 5952,
      "\"a family ": 5953,
      "\"a dark-haired ": 5954,
      "##boards ": 5955,
      "##paw": 5956,
      "##shirt sitting ": 5957,
      "##girl in the ": 5958,
      "##cara": 5959,
      "##cars .": 5960,
      "##cardboard ": 5961,
      "##playing on ": 5962,
      "##playing outside .": 5963,
      "##playing fetch ": 5964,
      "##playing cricket ": 5965,
      "##greyho": 5966,
      "##grey and white ": 5967,
      "##child in a ": 5968,
      "##child plays ": 5969,
      "##brown dog": 5970,
      "##brown grass .": 5971,
      "##brown jacket ": 5972,
      "##brown colored ": 5973,
      "##brown jacket is ": 5974,
      "##while one ": 5975,
      "##while her ": 5976,
      "##while it ": 5977,
      "##while playing with a ": 5978,
      "##while swing": 5979,
      "##while watching a ": 5980,
      "a brown horse ": 5981,
      "two little ": 5982,
      "two people are ": 5983,
      "two boy": 5984,
      "two brown and black ": 5985,
      "two hikers ": 5986,
      "two guys are ": 5987,
      "##its head ": 5988,
      "##its nose .": 5989,
      "##fat ": 5990,
      "##fashi": 5991,
      "##fair ": 5992,
      "##fake ": 5993,
      "##running outside .": 5994,
      "##running in a field .": 5995,
      "##running in green ": 5996,
      "##running towards a ": 5997,
      "##perched ": 5998,
      "##shop .": 5999,
      "##standing in the water .": 6000,
      "##standing near ": 6001,
      "##standing in the water ": 6002,
      "##jumping into ": 6003,
      "##jumping from one ": 6004,
      "##in front of": 6005,
      "## another girl ": 6006,
      "##wearing a helmet .": 6007,
      "##two kids ": 6008,
      "##sitting a": 6009,
      "##sitting at the ": 6010,
      "##little girl are ": 6011,
      "##little girl .": 6012,
      "##out at the ": 6013,
      "a man in a dark ": 6014,
      "a man in a uniform ": 6015,
      "##foggy ": 6016,
      "##foliage .": 6017,
      "a dog wearing a ": 6018,
      "a dog jumping over a ": 6019,
      "a dog carries a ": 6020,
      "a dog chasing a ": 6021,
      "a dog jumps over a ": 6022,
      "a dog goes ": 6023,
      "a dog chew": 6024,
      "a dog with a frisbee ": 6025,
      "a dog rolls ": 6026,
      "a dog chases another ": 6027,
      "##green ball ": 6028,
      "##green pants ": 6029,
      "##green field": 6030,
      "##beam ": 6031,
      "a child holding ": 6032,
      "a child does a ": 6033,
      "a child is jumping ": 6034,
      "a child rides a ": 6035,
      "a child in a green ": 6036,
      "a child swings ": 6037,
      "a child in an orange shirt ": 6038,
      "##somthing ": 6039,
      "##somersa": 6040,
      "##skater ": 6041,
      "##es a ball ": 6042,
      "##downhill .": 6043,
      "##water with a ": 6044,
      "##water while ": 6045,
      "##water 's ": 6046,
      "##over another ": 6047,
      "##overpass .": 6048,
      "##yellow car ": 6049,
      "##yellow kayak .": 6050,
      "##sister ": 6051,
      "##sized ": 6052,
      "##pine ": 6053,
      "these ": 6054,
      "##backstro": 6055,
      "##leaf ": 6056,
      "##son .": 6057,
      "##mouths .": 6058,
      "##climbers ": 6059,
      "##wearing green ": 6060,
      "##wearing yellow ": 6061,
      "##wearing red .": 6062,
      "##wearing the number ": 6063,
      "##in front of a bu": 6064,
      "##in front of a yellow ": 6065,
      "##in front of a wooden ": 6066,
      "##in front of a glass ": 6067,
      "##large brown ": 6068,
      "##large rock ": 6069,
      "##dia": 6070,
      "##dive ": 6071,
      "##digs ": 6072,
      "##digital ": 6073,
      "##meric": 6074,
      "##person in ": 6075,
      "##gate ": 6076,
      "a bare": 6077,
      "a baby": 6078,
      "##sual ": 6079,
      "##racers ": 6080,
      "##down a flight of ": 6081,
      "##tile ": 6082,
      "##tian ": 6083,
      "##tiger ": 6084,
      "##jack ": 6085,
      "##one person ": 6086,
      "##player in a white ": 6087,
      "##her dog ": 6088,
      "##her bike ": 6089,
      "##chalk": 6090,
      "##travel": 6091,
      "##travel ": 6092,
      "##dresses and ": 6093,
      "##jumps from a ": 6094,
      "##swing at the ": 6095,
      "##while an older ": 6096,
      "##pink ball ": 6097,
      "a little dog ": 6098,
      "a little white dog ": 6099,
      "a brown dog jumping ": 6100,
      "a brown dog holding a ": 6101,
      "a brown dog swimming ": 6102,
      "a brown dog jumping over a ": 6103,
      "a brown dog has a ": 6104,
      "a brown dog jumps over a ": 6105,
      "a brown dog chases a ": 6106,
      "a brown dog runs through the ": 6107,
      "##behind": 6108,
      "##ol .": 6109,
      "a cla": 6110,
      "a con": 6111,
      "##walking in ": 6112,
      "##walking through the snow .": 6113,
      "##walking past a ": 6114,
      "##walking up the ": 6115,
      "##reach ": 6116,
      "##stands on ": 6117,
      "##stands by a ": 6118,
      "##stands on his ": 6119,
      "##stands next to ": 6120,
      "##stands in the middle of a ": 6121,
      "##ted": 6122,
      "##down on a ": 6123,
      "##down some ": 6124,
      "##down in the snow .": 6125,
      "##next to": 6126,
      "##next to an ": 6127,
      "##orange and ": 6128,
      "##mov": 6129,
      "##move ": 6130,
      "##by an adul": 6131,
      "##gown": 6132,
      "##goalie ": 6133,
      "##holding a white ": 6134,
      "##holding a yellow ": 6135,
      "##holding a camera ": 6136,
      "##holding a football .": 6137,
      "##dogs in ": 6138,
      "##dogs playing ": 6139,
      "##feet .": 6140,
      "##feeding ": 6141,
      "##s and black ": 6142,
      "##s and holding ": 6143,
      "a girl in a bathing suit ": 6144,
      "a girl in a bikini ": 6145,
      "##sitting next to a ": 6146,
      "##sitting down and ": 6147,
      "##men wearing ": 6148,
      "##men   one ": 6149,
      "a black dog running through a ": 6150,
      "a black dog chases a ": 6151,
      "##orange shirt ": 6152,
      "##dressed in a white ": 6153,
      "##put ": 6154,
      "##puck .": 6155,
      "##pushe": 6156,
      "##runs with a ball ": 6157,
      "##to the side .": 6158,
      "##facing ": 6159,
      "##headed man ": 6160,
      "##ds of ": 6161,
      "##through the snow": 6162,
      "##through the snow ": 6163,
      "##through the mud .": 6164,
      "##gular ": 6165,
      "##ture ": 6166,
      "##shorts .": 6167,
      "##shorts and ": 6168,
      "##dirt and ": 6169,
      "a boy in a pool ": 6170,
      "##swims .": 6171,
      "a cop ": 6172,
      "##out her ": 6173,
      "##out for a ": 6174,
      "##some kin": 6175,
      "##woods": 6176,
      "a man is sitting on a ": 6177,
      "a man is standing on ": 6178,
      "a man is playing a ": 6179,
      "##shirts .": 6180,
      "##shirt are ": 6181,
      "##surfs on a ": 6182,
      "##tting ": 6183,
      "##small child ": 6184,
      "##small children ": 6185,
      "a person jumping ": 6186,
      "a person holding a ": 6187,
      "a person in a red ": 6188,
      "##stache ": 6189,
      "the girls ": 6190,
      "the men are ": 6191,
      "a brown and ": 6192,
      "##tent .": 6193,
      "a woman in a red ": 6194,
      "a woman carrying a ": 6195,
      "a woman in a blue ": 6196,
      "a woman in a yellow ": 6197,
      "##rock climbing ": 6198,
      "##by a metal ": 6199,
      "##vests ": 6200,
      "##people are": 6201,
      "##watch a ": 6202,
      "##watching .": 6203,
      "##through snow .": 6204,
      "##mountainous ": 6205,
      "##treks ": 6206,
      "##fully .": 6207,
      "##behind her ": 6208,
      "##behind her": 6209,
      "##behind him": 6210,
      "##plays on a ": 6211,
      "##shirt is looking ": 6212,
      "##shirt is inside a ": 6213,
      "##jewel": 6214,
      "##waters .": 6215,
      "##watercra": 6216,
      "##watermel": 6217,
      "##waterskiing ": 6218,
      "##glaci": 6219,
      "a brown dog is jumping over a ": 6220,
      "a brown dog is running on a ": 6221,
      "##football": 6222,
      "##mural ": 6223,
      "##rock-": 6224,
      "##dirt field .": 6225,
      "##dirt bike .": 6226,
      "##dirt road .": 6227,
      "##dirt hill": 6228,
      "##deck ": 6229,
      "##ded .": 6230,
      "##demon": 6231,
      "##de-haired ": 6232,
      "##kissing ": 6233,
      "##kissing a ": 6234,
      "##holding up ": 6235,
      "##holding his ": 6236,
      "##holding her ": 6237,
      "##holding hands ": 6238,
      "##holding hands .": 6239,
      "##sits on ": 6240,
      "##midd": 6241,
      "##bent ": 6242,
      "##hat is standing ": 6243,
      "##next to a woman ": 6244,
      "##soccer uniform ": 6245,
      "##soccer ball": 6246,
      "##play on a ": 6247,
      "##play on the ": 6248,
      "##cones .": 6249,
      "##k .\"": 6250,
      "a group of people sit ": 6251,
      "##skateboard down a ": 6252,
      "##ggy": 6253,
      "##on his sto": 6254,
      "##on his snowboard .": 6255,
      "##ocular": 6256,
      "##take ": 6257,
      "a couple is ": 6258,
      "##spi": 6259,
      "##splits ": 6260,
      "##sponso": 6261,
      "##riding a horse ": 6262,
      "##riding a snowboard ": 6263,
      "##road": 6264,
      "##les on a ": 6265,
      "##les over .": 6266,
      "##glasses .": 6267,
      "##pier": 6268,
      "##pick ": 6269,
      "##pipe": 6270,
      "##pizz": 6271,
      "##pipe ": 6272,
      "##skiers ": 6273,
      "##skimpy ": 6274,
      "##for a picture ": 6275,
      "##looks back": 6276,
      "##looks like a ": 6277,
      "a black and white dog carries a ": 6278,
      "a black and white dog catches a ": 6279,
      "##shaped ": 6280,
      "##shaggy ": 6281,
      "##mediu": 6282,
      "##snowy ground .": 6283,
      "##snowy mountain": 6284,
      "##snowy mountains .": 6285,
      "##long grass .": 6286,
      "##near a body of water .": 6287,
      "##girls smiling ": 6288,
      "a man and a girl ": 6289,
      "a man and a woman": 6290,
      "a man and a dog are ": 6291,
      "##hands": 6292,
      "##handle": 6293,
      "a man in dark ": 6294,
      "a man in jeans ": 6295,
      "##eating a ": 6296,
      "##tux": 6297,
      "##tumb": 6298,
      "##tulips .": 6299,
      "##hug": 6300,
      "##humm": 6301,
      "## at the en": 6302,
      "## at the camera": 6303,
      "## at the beach ": 6304,
      "## at the top of a ": 6305,
      "## at the beach": 6306,
      "## at the edge of a ": 6307,
      "## at the edge of the ": 6308,
      "##pping .\"": 6309,
      "##that overlooks a ": 6310,
      "##chest .": 6311,
      "##boys   one ": 6312,
      "##snow with ": 6313,
      "##while another dog is ": 6314,
      "##while another boy ": 6315,
      "##while another person ": 6316,
      "##swimming pool": 6317,
      "##swimming in a lake .": 6318,
      "##in an open ": 6319,
      "##in an inflatable ": 6320,
      "##doorway .": 6321,
      "##top of the ": 6322,
      "##purse": 6323,
      "##purse .": 6324,
      "## at his ": 6325,
      "## at it .": 6326,
      "##horns ": 6327,
      "##looking into the ": 6328,
      "##wind ": 6329,
      "##'s face ": 6330,
      "##'s head .": 6331,
      "##doing a flip ": 6332,
      "##being splash": 6333,
      "##being pulled ": 6334,
      "##being tackled ": 6335,
      "a boy is doing a ": 6336,
      "##floral ": 6337,
      "##floppy ": 6338,
      "##with his bike ": 6339,
      "##with his feet ": 6340,
      "##holds a sign ": 6341,
      "##holds a drink .": 6342,
      "##off road ": 6343,
      "##while a person ": 6344,
      "##while a man in a ": 6345,
      "##stand in a ": 6346,
      "##stand on a ": 6347,
      "##terrain .": 6348,
      "##woman and two ": 6349,
      "a little girl in a pink ": 6350,
      "##shorts is jumping ": 6351,
      "##has something ": 6352,
      "##has just ": 6353,
      "##dressed in white ": 6354,
      "##dressed in blue ": 6355,
      "##night ": 6356,
      "##que ": 6357,
      "##quet ": 6358,
      "##quoise ": 6359,
      "##three dogs ": 6360,
      "a baby in a ": 6361,
      "##tables ": 6362,
      "##resting ": 6363,
      "##in the air over a ": 6364,
      "##in the air to catch a ": 6365,
      "##flipping ": 6366,
      "a dog is jumping over a ": 6367,
      "##in a red uniform ": 6368,
      "##walk through a ": 6369,
      "##down the field .": 6370,
      "##down the hill ": 6371,
      "##down the sidewalk .": 6372,
      "##stick in the water .": 6373,
      "##up a rock ": 6374,
      "##up a mountain .": 6375,
      "##up a snowy mountain .": 6376,
      "##posing with a ": 6377,
      "##posing in front of a ": 6378,
      "three men ": 6379,
      "three girls ": 6380,
      "three men are ": 6381,
      "three girls are ": 6382,
      "three black dogs ": 6383,
      "##ing the player in white ": 6384,
      "##toy in the snow .": 6385,
      "##perform ": 6386,
      "##motorbike .": 6387,
      "##shirt and red ": 6388,
      "##shirt and brown ": 6389,
      "##shirt and hat ": 6390,
      "##shirt and sunglasses ": 6391,
      "##carrying a long ": 6392,
      "##carrying a stick in its mouth ": 6393,
      "##back to ": 6394,
      "##   one ": 6395,
      "a black dog is swimming ": 6396,
      "a black dog is jumping over a ": 6397,
      "a black dog is leaping ": 6398,
      "a black dog is running across a ": 6399,
      "a guy on a skateboard ": 6400,
      "##er is being ": 6401,
      "##looking at": 6402,
      "##purple": 6403,
      "##getting a ": 6404,
      "##red and a ": 6405,
      "##way from the ": 6406,
      "##dance": 6407,
      "##cycling ": 6408,
      "a black and white dog is catching a ": 6409,
      "##playing with a tennis ball ": 6410,
      "##clothing are ": 6411,
      "##pants and a ": 6412,
      "##step ": 6413,
      "##in a blue shirt is ": 6414,
      "##outside the ": 6415,
      "##wooden building .": 6416,
      "##stripes ": 6417,
      "##strikes a ": 6418,
      "##s at a park .": 6419,
      "##splashing around ": 6420,
      "##make-": 6421,
      "##navi": 6422,
      "##is standing by the ": 6423,
      "##standing on a beach ": 6424,
      "##riding his bike ": 6425,
      "##riding bicycles ": 6426,
      "##der collie ": 6427,
      "##vil ": 6428,
      "## at another dog ": 6429,
      "##mouth open ": 6430,
      "##something in its mouth .": 6431,
      "##something off camera .": 6432,
      "## about ": 6433,
      "a blond dog ": 6434,
      "a blond dog runs ": 6435,
      "##colorfully ": 6436,
      "##wall .\"": 6437,
      "##off a ramp .": 6438,
      "##off a ramp ": 6439,
      "##sits and ": 6440,
      "##running across ": 6441,
      "##running around a ": 6442,
      "##running across the grass .": 6443,
      "\"a man   ": 6444,
      "##flower": 6445,
      "##flowers": 6446,
      "##jump from a ": 6447,
      "##mountain .\"": 6448,
      "##helmet   ": 6449,
      "##screa": 6450,
      "##into his ": 6451,
      "##talk ": 6452,
      "##talking to ": 6453,
      "##on the beach .\"": 6454,
      "##sit back to ": 6455,
      "a little boy is ": 6456,
      "##face paint ": 6457,
      "##eds .": 6458,
      "##edge .": 6459,
      "##top and ": 6460,
      "##race car": 6461,
      "##race car ": 6462,
      "##race each other ": 6463,
      "##race on a track .": 6464,
      "##headscarf ": 6465,
      "##rocky hill .": 6466,
      "##rocky mountain .": 6467,
      "##rocky hill ": 6468,
      "four people are ": 6469,
      "four boys ": 6470,
      "four boys are ": 6471,
      "##cliffs .": 6472,
      "##camera in front of ": 6473,
      "##celebra": 6474,
      "##surfboard": 6475,
      "##open": 6476,
      "## and are ": 6477,
      "## and an ": 6478,
      "##baseman ": 6479,
      "##to catch a green ": 6480,
      "##exerci": 6481,
      "##for her ": 6482,
      "##jeans   ": 6483,
      "##smiling whilst ": 6484,
      "a lone surfboarder ": 6485,
      "##throw ": 6486,
      "##throwing ": 6487,
      "##high in the air .": 6488,
      "##marching ": 6489,
      "##whilst": 6490,
      "##holds the ball ": 6491,
      "##gainst": 6492,
      "##sweater": 6493,
      "##sweater and a ": 6494,
      "##football game .": 6495,
      "one child ": 6496,
      "one boy ": 6497,
      "##sled .": 6498,
      "##sand and ": 6499,
      "##s another man ": 6500,
      "##es around ": 6501,
      "##es along a ": 6502,
      "##cigar": 6503,
      "##ice skating ": 6504,
      "a man and child ": 6505,
      "a man and woman are ": 6506,
      "##bench in front of a ": 6507,
      "##bicycle with ": 6508,
      "##bites ": 6509,
      "##biting on a ": 6510,
      "##hair in a ": 6511,
      "##pose for the camera ": 6512,
      "##striped shirt is ": 6513,
      "##star ": 6514,
      "##starr": 6515,
      "##starting ": 6516,
      "##staring at the ": 6517,
      "##in a black shirt is ": 6518,
      "##runs across a ": 6519,
      "##runs around a ": 6520,
      "##bike .\"": 6521,
      "##picture on a ": 6522,
      "##tree with a ": 6523,
      "##next to each other ": 6524,
      "##ction": 6525,
      "##dog .\"": 6526,
      "##wall with ": 6527,
      "##wall with a ": 6528,
      "##wall   ": 6529,
      "##work .": 6530,
      "##worker ": 6531,
      "##running through the water": 6532,
      "##from the water ": 6533,
      "##kayaking ": 6534,
      "a fan ": 6535,
      "a father ": 6536,
      "##in black shorts ": 6537,
      "##pulls a ": 6538,
      "##over the green grass .": 6539,
      "##top of a ramp .": 6540,
      "##white and red ": 6541,
      "##white and green ": 6542,
      "a closeup of an ": 6543,
      "a closeup photo of a ": 6544,
      "##laying on the ": 6545,
      "a bunch of people are ": 6546,
      "##beside a body of water .": 6547,
      "##leaping into the air ": 6548,
      "a brown and white dog is jumping ": 6549,
      "##kicking ": 6550,
      "##y area ": 6551,
      "##gives a ": 6552,
      "##mong": 6553,
      "##money ": 6554,
      "a football player in ": 6555,
      "a football player is ": 6556,
      "a football player in a ": 6557,
      "##is jumping on the ": 6558,
      "##backpacks ": 6559,
      "##smoking ": 6560,
      "##smoking .": 6561,
      "##smokes a ": 6562,
      "##tennis ball in his mouth .": 6563,
      "##basketball in a ": 6564,
      "##whilst other ": 6565,
      "##whilst being ": 6566,
      "a young couple ": 6567,
      "##gray dog": 6568,
      "##wearing a blue shirt is ": 6569,
      "##watches .\"": 6570,
      "##phone": 6571,
      "a small girl ": 6572,
      "a small child ": 6573,
      "##push a ": 6574,
      "##pushing another boy ": 6575,
      "##bright yellow ": 6576,
      "##surrounded by other ": 6577,
      "##ches the ": 6578,
      "##lifts ": 6579,
      "##very large ": 6580,
      "##very fast ": 6581,
      "##playing in a fountain .": 6582,
      "##corn ": 6583,
      "##in a yellow shirt is ": 6584,
      "##raises ": 6585,
      "##raised ": 6586,
      "a man in a blue shirt is ": 6587,
      "##middle eastern ": 6588,
      "##brick wall .": 6589,
      "##brick building ": 6590,
      "##together in a ": 6591,
      "##jersey .": 6592,
      "##jersey and ": 6593,
      "##leans a": 6594,
      "##paddling a ": 6595,
      "##bubble .": 6596,
      "##swinging a ": 6597,
      "##swings .": 6598,
      "##shallow water ": 6599,
      "##that is lying ": 6600,
      "##gets ready ": 6601,
      "##trying to catch a ": 6602,
      "##under a large ": 6603,
      "##under a tree .": 6604,
      "children participate in a ": 6605,
      "##  and one ": 6606,
      "##with her head ": 6607,
      "##standing on one hand ": 6608,
      "##standing in front of a large ": 6609,
      "##sitting on the floor ": 6610,
      "##out of the water ": 6611,
      "people stand ": 6612,
      "##between them .": 6613,
      "##squa": 6614,
      "##squat": 6615,
      "##fternoon ": 6616,
      "##ing another girl ": 6617,
      "##wall and ": 6618,
      "##of water on another ": 6619,
      "##by the water .": 6620,
      "a man in a red jacket ": 6621,
      "a man in a red coat ": 6622,
      "a man in a red jacket is ": 6623,
      "##wheel .": 6624,
      "##wheelchair ": 6625,
      "##couch and ": 6626,
      "##inner": 6627,
      "##hillside ": 6628,
      "##in the middle of ": 6629,
      "##people .\"": 6630,
      "a man in a black jacket is ": 6631,
      "##sidewalk of a ": 6632,
      "##in the air   ": 6633,
      "a brown and black dog runs ": 6634,
      "##wning .": 6635,
      "##cushi": 6636,
      "##jugg": 6637,
      "##in green is ": 6638,
      "##in green shoes ": 6639,
      "##way .\"": 6640,
      "##playing on a swing ": 6641,
      "##enjoys ": 6642,
      "a bald man in a ": 6643,
      "##skateboarding on a ": 6644,
      "##skateboarder is ": 6645,
      "##snow covered hill .": 6646,
      "##view": 6647,
      "##into the air": 6648,
      "##trying to catch ": 6649,
      "##concrete wall": 6650,
      "a bird flying ": 6651,
      "##is walking through a ": 6652,
      "##yellow and blue ": 6653,
      "##suburban ": 6654,
      "##out of a blue ": 6655,
      "##sunset": 6656,
      "##takes a picture .": 6657,
      "##steps": 6658,
      "##in midair over a ": 6659,
      "##bathing suits ": 6660,
      "##birth": 6661,
      "##on an orange ": 6662,
      "##on an obstacle ": 6663,
      "##stunt": 6664,
      "##bottle of ": 6665,
      "##several people ": 6666,
      "##coat .": 6667,
      "##coat and red ": 6668,
      "##with its tongue hanging out .": 6669,
      "##with their backs ": 6670,
      "##while the man ": 6671,
      "##while the other ": 6672,
      "##merican flag ": 6673,
      "##taking a picture .": 6674,
      "##flies through the air": 6675,
      "##sleeps ": 6676,
      "##towards the camera ": 6677,
      "##tical ": 6678,
      "##bowl": 6679,
      "##bowl ": 6680,
      "##bowls ": 6681,
      "##with a stick in his mouth .": 6682,
      "##standing around a ": 6683,
      "##chairs ": 6684,
      "##pictures ": 6685,
      "##winter gear is ": 6686,
      "##line of ": 6687,
      "##clothing is ": 6688,
      "##performing a jump ": 6689,
      "##market ": 6690,
      "##markings ": 6691,
      "##photograp": 6692,
      "##her arm": 6693,
      "##skis .": 6694,
      "##skirt": 6695,
      "##skirts ": 6696,
      "##s as his ": 6697,
      "##s as he ": 6698,
      "##s as they ": 6699,
      "a boy in a blue shirt ": 6700,
      "##rocks near a ": 6701,
      "##sport ": 6702,
      "##looks on .\"": 6703,
      "##looking at his ": 6704,
      "a closeup of a man ": 6705,
      "a closeup of a girl ": 6706,
      "a climber sca": 6707,
      "##puppy is ": 6708,
      "##shoulders ": 6709,
      "\"two children ": 6710,
      "##y and her ": 6711,
      "##porch ": 6712,
      "##child are ": 6713,
      "##stretch ": 6714,
      "##stretches ": 6715,
      "a crowd watch": 6716,
      "##deep snow .": 6717,
      "an elderly woman ": 6718,
      "##event ": 6719,
      "a bull ": 6720,
      "a boy in yellow ": 6721,
      "##walking on a sidewalk ": 6722,
      "##fireworks ": 6723,
      "##pink are ": 6724,
      "##pink and white ": 6725,
      "##black and white dog .": 6726,
      "##photograph ": 6727,
      "##photograph .": 6728,
      "##dry grass ": 6729,
      "##onto something ": 6730,
      "##hold up a ": 6731,
      "a boy wearing black ": 6732,
      "##wears a white ": 6733,
      "##on the grass with a ": 6734,
      "a group of young people ": 6735,
      "a group of young boys ": 6736,
      "##running in a race .": 6737,
      "##running in a field": 6738,
      "##shopping for ": 6739,
      "##shopping cart .": 6740,
      "##follows ": 6741,
      "the three people are ": 6742,
      "##hat and sunglasses ": 6743,
      "##steps near a ": 6744,
      "##life vest ": 6745,
      "##someone 's ": 6746,
      "##gloves .": 6747,
      "##slope ": 6748,
      "##e along a ": 6749,
      "##curly haired ": 6750,
      "##in their mouths .": 6751,
      "##on a dirt bike .": 6752,
      "##running on grass": 6753,
      "##climbs a rock ": 6754,
      "##suited ": 6755,
      "##suits are ": 6756,
      "##trees and ": 6757,
      "##fence   ": 6758,
      "##signs ": 6759,
      "##signs .": 6760,
      "##scenic ": 6761,
      "##microphone": 6762,
      "##class ": 6763,
      "##class": 6764,
      "##in her hand .": 6765,
      "##in shallow water ": 6766,
      "##in shallow water": 6767,
      "##statue of ": 6768,
      "##on its back .": 6769,
      "##hoop .": 6770,
      "##skinny ": 6771,
      "##campsit": 6772,
      "##gathers ": 6773,
      "##turns a ": 6774,
      "##cloud": 6775,
      "##clouds ": 6776,
      "##clouds .": 6777,
      "##pile of leaves .": 6778,
      "##chews ": 6779,
      "##covered in mud ": 6780,
      "##crosswalk ": 6781,
      "## attempting to ": 6782,
      "##brown and white dog .": 6783,
      "##pose for a picture ": 6784,
      "##kneels ": 6785,
      "##view of a ": 6786,
      "##view of the ": 6787,
      "##balloon": 6788,
      "##balloon .": 6789,
      "boy ": 6790,
      "men in ": 6791,
      "##owner .": 6792,
      "##patch ": 6793,
      "## all over ": 6794,
      "## an art ": 6795,
      "## an artif": 6796,
      "##tall grass .": 6797,
      "##walks across the ": 6798,
      "##can be ": 6799,
      "##girl in pink ": 6800,
      "##jumping into a pool": 6801,
      "##jumping into a swimming pool .": 6802,
      "a black and a brown dog are ": 6803,
      "a black and a white dog are ": 6804,
      "a man in a yellow shirt ": 6805,
      "a man in a yellow jacket ": 6806,
      "##walking down the street ": 6807,
      "a girl in a white dress ": 6808,
      "##helmets ": 6809,
      "##lined with ": 6810,
      "an asian girl ": 6811,
      "##sports uniform ": 6812,
      "##competition ": 6813,
      "##volleyball .": 6814,
      "##grinding down a ": 6815,
      "a kid is ": 6816,
      "##hitting the ball": 6817,
      "##hits a ball with a ": 6818,
      "##boogie ": 6819,
      "##bottoms ": 6820,
      "a man in an orange shirt ": 6821,
      "a man in an orange hat ": 6822,
      "##passes ": 6823,
      "##crouches ": 6824,
      "##goggles .": 6825,
      "##out of her ": 6826,
      "##mud puddle ": 6827,
      "##mud puddle .": 6828,
      "##slide with his ": 6829,
      "##field of tall ": 6830,
      "##doing a skateboard trick .": 6831,
      "a boy and girl are ": 6832,
      "an african ": 6833,
      "## above the water .": 6834,
      "##paper while ": 6835,
      "##platform": 6836,
      "##sprinkler ": 6837,
      "##fallen tree ": 6838,
      "##branch .": 6839,
      "##tunnel ": 6840,
      "##vas": 6841,
      "##indoors .": 6842,
      "##interac": 6843,
      "##interest": 6844,
      "##himself ": 6845,
      "##opposing team": 6846,
      "a group of boys play ": 6847,
      "##partly ": 6848,
      "##chasing after a ": 6849,
      "##behind them .\"": 6850,
      "##takes the ": 6851,
      "##fishing pole ": 6852,
      "##wheel drive ": 6853,
      "##ction of ": 6854,
      "##spectators ": 6855,
      "##restaurant": 6856,
      "##two are ": 6857,
      "##two asian ": 6858,
      "##drums .": 6859,
      "a bmx rider ": 6860,
      "##stop ": 6861,
      "##touch": 6862,
      "a man holds a stick ": 6863,
      "a boy jumping off a ": 6864,
      "##jumping on a trampoline ": 6865,
      "##jumping on a trampoline .": 6866,
      "##packa": 6867,
      "##while others watch .": 6868,
      "##wearing a pink shirt is ": 6869,
      "##golden dog ": 6870,
      "##dogs play in the snow ": 6871,
      "##shakes itself ": 6872,
      "##in his mouth as he ": 6873,
      "##boy and girl are ": 6874,
      "##who has ": 6875,
      "##who has a ": 6876,
      "##kicking a soccer ball ": 6877,
      "##points at ": 6878,
      "##squirted ": 6879,
      "##hoodie and ": 6880,
      "##vehicle .": 6881,
      "##equipment ": 6882,
      "##singing ": 6883,
      "##soft ": 6884,
      "##candles .": 6885,
      "##clut": 6886,
      "##d of snow .": 6887,
      "##on grass .\"": 6888,
      "##on it .\"": 6889,
      "##hair .\"": 6890,
      "##caught a ": 6891,
      "##paved path": 6892,
      "##while holding onto ": 6893,
      "##wearing a green jacket is ": 6894,
      "a black and white spotted ": 6895,
      "##direc": 6896,
      "##direction ": 6897,
      "##off the ground ": 6898,
      "##over his face .": 6899,
      "##sits atop a ": 6900,
      "##kayak on ": 6901,
      "##smoking a cigarette ": 6902,
      "a bicycle rider ": 6903,
      "##gymnasi": 6904,
      "a goalie is ": 6905,
      "##dunk": 6906,
      "##vendor": 6907,
      "a dachshund ": 6908,
      "##relaxes ": 6909,
      "##machine .": 6910,
      "##batter ": 6911,
      "##tail is ": 6912,
      "##poles": 6913,
      "##position ": 6914,
      "##ing as he ": 6915,
      "##fighting .": 6916,
      "##woman with short ": 6917,
      "##s at another ": 6918,
      "##s at an a": 6919,
      "##casting a ": 6920,
      "##casts a ": 6921,
      "##pavement ": 6922,
      "##shoreline ": 6923,
      "##shoreline": 6924,
      "##bucket of water on another ": 6925,
      "##outside as ": 6926,
      "a child in a red jacket ": 6927,
      "##gazes ": 6928,
      "##reading a book .": 6929,
      "##teeth ": 6930,
      "##swimmer ": 6931,
      "##swimming .": 6932,
      "##over some water .": 6933,
      "##picnic table ": 6934,
      "##ice cream .": 6935,
      "##climbing a rock face": 6936,
      "##hardhat ": 6937,
      "##police offic": 6938,
      "##green and yellow ": 6939,
      "##videota": 6940,
      "##volleyball net .": 6941,
      "a beige dog runs ": 6942,
      "##newspaper": 6943,
      "a golden retriever ": 6944,
      "##udience ": 6945,
      "##glider ": 6946,
      "##support ": 6947,
      "##sword .": 6948,
      "##swords .": 6949,
      "##mound of snow .": 6950,
      "##keep": 6951,
      "##instruments ": 6952,
      "a fluffy white dog ": 6953,
      "##rainbow ": 6954,
      "##body": 6955,
      "##ck of birds ": 6956,
      "##half pipe .": 6957,
      "##forward ": 6958,
      "##carnival .": 6959,
      "##background .\"": 6960,
      "##backwards .": 6961,
      "a group of people stand on a ": 6962,
      "##in its mouth is ": 6963,
      "##spread .": 6964,
      "##barrel ": 6965,
      "a little girl in pajamas ": 6966,
      "##shirt and blue jeans ": 6967,
      "##sits at a table ": 6968,
      "##in front of some bushes .": 6969,
      "##smoke behind it .": 6970,
      "##eyes close": 6971,
      "a dark haired bearded man ": 6972,
      "##tank top and a ": 6973,
      "##dead leaves .": 6974,
      "##mirror ": 6975,
      "##growl": 6976,
      "##brok": 6977,
      "##brother ": 6978,
      "##that are ": 6979,
      "##unicycle ": 6980,
      "##on a park bench .": 6981,
      "##peeks ": 6982,
      "##enter a ": 6983,
      "##dog and two black dogs ": 6984,
      "##ing across the water ": 6985,
      "\"a brown   black ": 6986,
      "##little boys in ": 6987,
      "##chains ": 6988,
      "##telephone ": 6989,
      "##tricycle .": 6990,
      "##public": 6991,
      "a collie ": 6992,
      "##hugging .": 6993,
      "##walk down a city ": 6994,
      "##talking on a cellphone ": 6995,
      "##walking along the side of a ": 6996,
      "##scarf and ": 6997,
      "##blows bubbles ": 6998,
      "a woman and child ": 6999,
      "##peace sign ": 7000,
      "##countryside ": 7001,
      "##dressed as a pirate ": 7002,
      "##straw hat ": 7003,
      "##gathered a": 7004,
      "##roller coaster ": 7005,
      "##teenage girl ": 7006,
      "##necklace .": 7007,
      "##coffee ": 7008,
      "##coffee .": 7009,
      "##martial artist ": 7010,
      "##native ": 7011,
      "##feather ": 7012,
      "##feathered ": 7013,
      "##doing the splits ": 7014,
      "a blurred ": 7015,
      "a blurry ": 7016,
      "##on an amusement park ": 7017,
      "##style ": 7018,
      "##wagon ": 7019,
      "##wagon .": 7020,
      "##baby and ": 7021,
      "##with something in its mouth .": 7022,
      "##with mountains in the background .": 7023,
      "##grabs a ": 7024,
      "##power ": 7025,
      "##poodle ": 7026,
      "a girl wearing pink ": 7027,
      "##running down the field .": 7028,
      "##shot of a ": 7029,
      "##racing on a track": 7030,
      "a man asleep ": 7031,
      "##from an outdoor ": 7032,
      "##d as he ": 7033,
      "##conversati": 7034,
      "##pigeon": 7035,
      "##pigeons ": 7036,
      "##yclists are ": 7037,
      "##terrier ": 7038,
      "##violin ": 7039,
      "##violin .": 7040,
      "##struggling ": 7041,
      "##creating ": 7042,
      "a lone surfer riding a ": 7043,
      "##puppies ": 7044,
      "##raising his ": 7045,
      "##banner .": 7046,
      "a girl and a woman ": 7047,
      "##protective gear .": 7048,
      "##crashing wave .": 7049,
      "##video camera ": 7050,
      "##writing ": 7051,
      "##merry-go-round .": 7052,
      "##merry-go-round": 7053,
      "five ": 7054,
      "##you ": 7055,
      "##nging the player in white ": 7056,
      "##tleman ": 7057,
      "a flock of birds ": 7058,
      "##which a ": 7059,
      "##lounge ": 7060,
      "##located ": 7061,
      "##both are ": 7062,
      "##horizontal ": 7063,
      "##opponent .": 7064,
      "##snowcapped mountains .": 7065,
      "##sharp ": 7066,
      "##fabric .": 7067,
      "##disc .": 7068,
      "##rubber ": 7069,
      "##side by side ": 7070,
      "a city street ": 7071,
      "##young adults ": 7072,
      "##rock formation .": 7073,
      "a brown dog is jumping up at a ": 7074,
      "##bends over ": 7075,
      "##from a water bottle .": 7076,
      "##studio .": 7077,
      "##brightly colored ": 7078,
      "##drives through a ": 7079,
      "##underneath ": 7080,
      "##college ": 7081,
      "##huge wave in the ocean .": 7082,
      "##eyeb": 7083,
      "##smiles as she ": 7084,
      "##sprayed ": 7085,
      "##softball player ": 7086,
      "##teammate ": 7087,
      "##happily ": 7088,
      "skiiers ": 7089,
      "##binocular": 7090,
      "##either ": 7091,
      "##dandel": 7092,
      "a four wheel drive ": 7093,
      "a lady and her ": 7094,
      "##irport .": 7095,
      "##in a rural": 7096,
      "##itself .": 7097,
      "##leotard ": 7098,
      "##hockey .": 7099,
      "##how to ": 7100,
      "a man drives a ": 7101,
      "##selling ": 7102,
      "##operating a ": 7103,
      "##on the pavement .": 7104,
      "##cartwheel ": 7105,
      "##over an obstacle .": 7106,
      "##climbs an indoor ": 7107,
      "##sumo wrestler ": 7108,
      "##challenging the player in white ": 7109,
      "a coach ": 7110,
      "a compet": 7111,
      "##shawl ": 7112,
      "##barrel .": 7113,
      "##performance ": 7114,
      "##daughter ": 7115,
      "##carries an orange ": 7116,
      "##sit at a table ": 7117,
      "##railroad track": 7118,
      "##tree trunk .": 7119,
      "a bicyclist is attempting a trick ": 7120,
      "##computer ": 7121,
      "##standing on its hind legs ": 7122,
      "##object in its mouth .\"": 7123,
      "##elephant ": 7124,
      "##patterned ": 7125,
      "##dribbles a basketball ": 7126,
      "##emerging from a ": 7127,
      "##participates in a ": 7128,
      "##thumbs up .": 7129,
      "##becomes airbor": 7130,
      "foot": 7131,
      "little ": 7132,
      "##obama ": 7133,
      "##occupi": 7134,
      "##ninja ": 7135,
      "##sparkl": 7136,
      "##establi": 7137,
      "##murky ": 7138,
      "##plushie ": 7139,
      "##fellow ": 7140,
      "##industri": 7141,
      "a snowboarder is ": 7142,
      "a chub": 7143,
      "##rescue ": 7144,
      "##repels ": 7145,
      "a brightly ": 7146,
      "##towel ": 7147,
      "##on calm ": 7148,
      "##security ": 7149,
      "##commun": 7150,
      "##wearing all ": 7151,
      "##hallowe": 7152,
      "##somersaul": 7153,
      "##water 's edge .": 7154,
      "##backstroke ": 7155,
      "##gowns ": 7156,
      "##some kind of ": 7157,
      "##sponsored ": 7158,
      "##medium ": 7159,
      "##navigat": 7160,
      "a climber scales a ": 7161,
      "## an artificial ": 7162,
      "\"th": 7163,
      "\"an ": 7164,
      "\"children ": 7165,
      "\"five ": 7166,
      "\"two asian ": 7167,
      "asian ": 7168,
      "airplane ": 7169,
      "black ": 7170,
      "cyclists are ": 7171,
      "dir": 7172,
      "gre": 7173,
      "la": 7174,
      "mo": 7175,
      "man ": 7176,
      "so": 7177,
      "snow": 7178,
      "smil": 7179,
      "##ys": 7180,
      "##yd": 7181,
      "##ymp": 7182,
      "##yor": 7183,
      "##yli": 7184,
      "##ys a": 7185,
      "##y at a ": 7186,
      "##yon .": 7187,
      "##yal ": 7188,
      "##oy ": 7189,
      "##ooth": 7190,
      "##us ": 7191,
      "##uto": 7192,
      "##um ": 7193,
      "##use ": 7194,
      "##ulan": 7195,
      "##used ": 7196,
      "##uses a ": 7197,
      "##ner": 7198,
      "##ner ": 7199,
      "##nit": 7200,
      "##nice ": 7201,
      "##nger ": 7202,
      "##gn": 7203,
      "##gle": 7204,
      "##gles ": 7205,
      "##german sheph": 7206,
      "##german shepherd ": 7207,
      "## of ": 7208,
      "## people ": 7209,
      "##  another ": 7210,
      "##  arms ": 7211,
      "##  all ": 7212,
      "##bs ": 7213,
      "##bla": 7214,
      "##bit .": 7215,
      "##blin": 7216,
      "##berman ": 7217,
      "##bunny ": 7218,
      "##ble in the ": 7219,
      "##bree": 7220,
      "##bly dressed ": 7221,
      "##swo": 7222,
      "##sch": 7223,
      "##sic": 7224,
      "##sso": 7225,
      "##ssy ": 7226,
      "##sons ": 7227,
      "##slight": 7228,
      "##snea": 7229,
      "##s arms .": 7230,
      "##ee": 7231,
      "##ela": 7232,
      "##e and a ": 7233,
      "##e and white ": 7234,
      "##es and ": 7235,
      "##eps ": 7236,
      "##ese .": 7237,
      "##eled ": 7238,
      "##ejec": 7239,
      "##emon": 7240,
      "##emitt": 7241,
      "##ick ": 7242,
      "##ico": 7243,
      "##ist ": 7244,
      "##ies .": 7245,
      "##if ": 7246,
      "##iss": 7247,
      "##ised ": 7248,
      "##iglo": 7249,
      "##itor ": 7250,
      "##hyd": 7251,
      "##tt ": 7252,
      "##tin ": 7253,
      "##tar": 7254,
      "##tta": 7255,
      "##til": 7256,
      "##tes a ": 7257,
      "##tle .": 7258,
      "##troll": 7259,
      "##tine ": 7260,
      "##t air ": 7261,
      "##tely ": 7262,
      "##treads ": 7263,
      "##tation ": 7264,
      "##ad": 7265,
      "##aun": 7266,
      "##an .": 7267,
      "##ably dressed ": 7268,
      "##ry .": 7269,
      "##rings ": 7270,
      "##wand .": 7271,
      "##wrist": 7272,
      "##lf": 7273,
      "##ler": 7274,
      "##lit": 7275,
      "##lon ": 7276,
      "##ly .": 7277,
      "##ler is ": 7278,
      "##lings ": 7279,
      "##lity ": 7280,
      "##der .": 7281,
      "##ds are ": 7282,
      "##drop": 7283,
      "##ders are ": 7284,
      "##d-up ": 7285,
      "##mn ": 7286,
      "##my ": 7287,
      "##mming ": 7288,
      "##m   ": 7289,
      "##mini": 7290,
      "##mother": 7291,
      "##me .\"": 7292,
      "##mmed ": 7293,
      "##mly dressed ": 7294,
      "##mother and ": 7295,
      "##cing ": 7296,
      "##ced ": 7297,
      "##ces ": 7298,
      "##clean": 7299,
      "##cts a ": 7300,
      "##cup and ": 7301,
      "##cyclist": 7302,
      "##clean ": 7303,
      "##clings ": 7304,
      "##k and ": 7305,
      "##ke .": 7306,
      "##kitt": 7307,
      "##kha": 7308,
      "##kilt ": 7309,
      "##ked and ": 7310,
      "##py": 7311,
      "##ps a ": 7312,
      "##pper": 7313,
      "##pit ": 7314,
      "##pour ": 7315,
      "##prop": 7316,
      "##ption ": 7317,
      "##priz": 7318,
      "##. ": 7319,
      "##fre": 7320,
      "##fe .": 7321,
      "##four": 7322,
      "##flan": 7323,
      "##fans ": 7324,
      "##fini": 7325,
      "##fant ": 7326,
      "##far ": 7327,
      "##xing ": 7328,
      "##xop": 7329,
      "##xican ": 7330,
      "##jou": 7331,
      "##-colored ": 7332,
      "##-hoop": 7333,
      "##-war ": 7334,
      "##-wheeler ": 7335,
      "##-shaped ": 7336,
      "##vin": 7337,
      "##vine ": 7338,
      "##vari": 7339,
      "##19": 7340,
      "##8 ": 7341,
      "##zes ": 7342,
      "##0 ": 7343,
      "##; ": 7344,
      "## ai": 7345,
      "## air": 7346,
      "## alone ": 7347,
      "## ascen": 7348,
      "## against ": 7349,
      "## asleep ": 7350,
      "## apron ": 7351,
      "## almost ": 7352,
      "## acting ": 7353,
      "## athlete ": 7354,
      "## against": 7355,
      "## among": 7356,
      "##ina": 7357,
      "##int ": 7358,
      "##into": 7359,
      "##ines ": 7360,
      "##ina ": 7361,
      "##inside": 7362,
      "##inve": 7363,
      "##inde": 7364,
      "##inspec": 7365,
      "##infant ": 7366,
      "## a white ": 7367,
      "## a snow": 7368,
      "## a girl ": 7369,
      "## a pi": 7370,
      "## a few ": 7371,
      "##s lo": 7372,
      "##s her ": 7373,
      "##s up a ": 7374,
      "##s in front of a crowd .": 7375,
      "a hi": 7376,
      "a la": 7377,
      "a lon": 7378,
      "a lar": 7379,
      "a war": 7380,
      "a long": 7381,
      "a dar": 7382,
      "a white and ": 7383,
      "a hockey ": 7384,
      "a tan dog ": 7385,
      "a dist": 7386,
      "a light ": 7387,
      "a rock climb": 7388,
      "a helmet": 7389,
      "a tennis player ": 7390,
      "a wrestler ": 7391,
      "a half ": 7392,
      "a runner ": 7393,
      "a pel": 7394,
      "a lot of ": 7395,
      "a white and a ": 7396,
      "a parachute ": 7397,
      "a cross-country ": 7398,
      "a human ": 7399,
      "a team of ": 7400,
      "a military ": 7401,
      "a motorcyclist ": 7402,
      "a horse and ": 7403,
      "a carnival ": 7404,
      "a toddler is ": 7405,
      "a fruit ": 7406,
      "a professional ": 7407,
      "a chinese ": 7408,
      "a cara": 7409,
      "a jack ": 7410,
      "a skateboarder is ": 7411,
      "a line of ": 7412,
      "a photograp": 7413,
      "a sumo wrestler ": 7414,
      "a medium ": 7415,
      "##this ": 7416,
      "##n in a ": 7417,
      "##d in a ": 7418,
      "##ing with a ": 7419,
      "##ing through ": 7420,
      "##ing up to ": 7421,
      "##ing zo": 7422,
      "##ing tool": 7423,
      "##ermen ": 7424,
      "##ering his ": 7425,
      "##erial ": 7426,
      "##roon ": 7427,
      "##robo": 7428,
      "##roof ": 7429,
      "##roup": 7430,
      "##roll ": 7431,
      "##rod .": 7432,
      "##robe ": 7433,
      "##royal ": 7434,
      "##hit ": 7435,
      "##his a": 7436,
      "##hike ": 7437,
      "##hibit .": 7438,
      "##lay": 7439,
      "##lamp": 7440,
      "##lawn": 7441,
      "##lay-": 7442,
      "##lap .": 7443,
      "##laven": 7444,
      "##labra": 7445,
      "##lasso": 7446,
      "##t road .": 7447,
      "##t gun .": 7448,
      "##doo": 7449,
      "##don": 7450,
      "##dol": 7451,
      "##doll ": 7452,
      "##donu": 7453,
      "##y is ": 7454,
      "##y on the ": 7455,
      "##y path .": 7456,
      "##y costume ": 7457,
      "##rear": 7458,
      "##resid": 7459,
      "##ress ": 7460,
      "##regi": 7461,
      "##recen": 7462,
      "##returning a ": 7463,
      "##resor": 7464,
      "##mac": 7465,
      "##mat ": 7466,
      "##mach ": 7467,
      "##mat .": 7468,
      "##matt": 7469,
      "##mats .": 7470,
      "##maroon ": 7471,
      "##the person ": 7472,
      "##the way ": 7473,
      "##the ball": 7474,
      "##the face ": 7475,
      "##the fence .": 7476,
      "##the basketball ": 7477,
      "##the ball and ": 7478,
      "## an animal ": 7479,
      "##ckey": 7480,
      "##in sun": 7481,
      "##in uni": 7482,
      "##in white": 7483,
      "##in jeans ": 7484,
      "##in sunglasses ": 7485,
      "##in bright ": 7486,
      "##in very ": 7487,
      "##in black and white ": 7488,
      "##in hand .": 7489,
      "##in full ": 7490,
      "##in close ": 7491,
      "##in lawn ": 7492,
      "##in uniforms .": 7493,
      "##in splashing water ": 7494,
      "##in silhou": 7495,
      "##in swim trunks ": 7496,
      "##in dry grass .": 7497,
      "##in traffic .": 7498,
      "##in background .\"": 7499,
      "##in murky ": 7500,
      "a bro": 7501,
      "a brea": 7502,
      "a bund": 7503,
      "a beach ": 7504,
      "a bunch ": 7505,
      "a brunette ": 7506,
      "##ards ": 7507,
      "##arter": 7508,
      "##araun": 7509,
      "##onball ": 7510,
      "##on around ": 7511,
      "##only": 7512,
      "##onably dressed ": 7513,
      "##on an animal ": 7514,
      "##er on ": 7515,
      "##er with ": 7516,
      "##er in front of a ": 7517,
      "##er jumps ": 7518,
      "##is .": 7519,
      "##is re": 7520,
      "##is in the ": 7521,
      "##is watch": 7522,
      "##is pur": 7523,
      "##is throw": 7524,
      "##is jumping over a ": 7525,
      "##is climbing a ": 7526,
      "##is gi": 7527,
      "##is push": 7528,
      "##is splashing ": 7529,
      "##is looking at the ": 7530,
[...]
